{
  "version": "1.0",
  "truncation": null,
  "padding": null,
  "added_tokens": [
    {
      "id": 0,
      "content": "<pad>",
      "single_word": false,
      "lstrip": false,
      "rstrip": false,
      "normalized": false,
      "special": true
    },
    {
      "id": 1,
      "content": "<bos>",
      "single_word": false,
      "lstrip": false,
      "rstrip": false,
      "normalized": false,
      "special": true
    },
    {
      "id": 2,
      "content": "<eos>",
      "single_word": false,
      "lstrip": false,
      "rstrip": false,
      "normalized": false,
      "special": true
    },
    {
      "id": 3,
      "content": "<unk>",
      "single_word": false,
      "lstrip": false,
      "rstrip": false,
      "normalized": false,
      "special": true
    }
  ],
  "normalizer": null,
  "pre_tokenizer": {
    "type": "ByteLevel",
    "add_prefix_space": false,
    "trim_offsets": true,
    "use_regex": true
  },
  "post_processor": null,
  "decoder": {
    "type": "ByteLevel",
    "add_prefix_space": true,
    "trim_offsets": true,
    "use_regex": true
  },
  "model": {
    "type": "BPE",
    "dropout": null,
    "unk_token": "<unk>",
    "continuing_subword_prefix": null,
    "end_of_word_suffix": null,
    "fuse_unk": false,
    "byte_fallback": false,
    "ignore_merges": false,
    "vocab": {
      "<pad>": 0,
      "<bos>": 1,
      "<eos>": 2,
      "<unk>": 3,
      "!": 4,
      "\"": 5,
      "#": 6,
      "$": 7,
      "%": 8,
      "&": 9,
      "'": 10,
      "(": 11,
      ")": 12,
      "*": 13,
      "+": 14,
      ",": 15,
      "-": 16,
      ".": 17,
      "/": 18,
      "0": 19,
      "1": 20,
      "2": 21,
      "3": 22,
      "4": 23,
      "5": 24,
      "6": 25,
      "7": 26,
      "8": 27,
      "9": 28,
      ":": 29,
      ";": 30,
      "<": 31,
      "=": 32,
      ">": 33,
      "?": 34,
      "@": 35,
      "A": 36,
      "B": 37,
      "C": 38,
      "D": 39,
      "E": 40,
      "F": 41,
      "G": 42,
      "H": 43,
      "I": 44,
      "J": 45,
      "K": 46,
      "L": 47,
      "M": 48,
      "N": 49,
      "O": 50,
      "P": 51,
      "Q": 52,
      "R": 53,
      "S": 54,
      "T": 55,
      "U": 56,
      "V": 57,
      "W": 58,
      "X": 59,
      "Y": 60,
      "Z": 61,
      "[": 62,
      "\\": 63,
      "]": 64,
      "^": 65,
      "_": 66,
      "`": 67,
      "a": 68,
      "b": 69,
      "c": 70,
      "d": 71,
      "e": 72,
      "f": 73,
      "g": 74,
      "h": 75,
      "i": 76,
      "j": 77,
      "k": 78,
      "l": 79,
      "m": 80,
      "n": 81,
      "o": 82,
      "p": 83,
      "q": 84,
      "r": 85,
      "s": 86,
      "t": 87,
      "u": 88,
      "v": 89,
      "w": 90,
      "x": 91,
      "y": 92,
      "z": 93,
      "|": 94,
      "}": 95,
      "~": 96,
      "¡": 97,
      "¢": 98,
      "£": 99,
      "¤": 100,
      "¥": 101,
      "¦": 102,
      "§": 103,
      "¨": 104,
      "©": 105,
      "ª": 106,
      "«": 107,
      "¬": 108,
      "®": 109,
      "¯": 110,
      "°": 111,
      "±": 112,
      "²": 113,
      "³": 114,
      "´": 115,
      "µ": 116,
      "¶": 117,
      "·": 118,
      "¸": 119,
      "¹": 120,
      "º": 121,
      "»": 122,
      "¼": 123,
      "½": 124,
      "¾": 125,
      "¿": 126,
      "Â": 127,
      "Ã": 128,
      "Ä": 129,
      "Å": 130,
      "Æ": 131,
      "Ç": 132,
      "È": 133,
      "É": 134,
      "Ê": 135,
      "Ë": 136,
      "Ì": 137,
      "Î": 138,
      "Ï": 139,
      "Ð": 140,
      "Ñ": 141,
      "Õ": 142,
      "Ö": 143,
      "×": 144,
      "Ø": 145,
      "Ù": 146,
      "Ú": 147,
      "Û": 148,
      "à": 149,
      "á": 150,
      "â": 151,
      "ã": 152,
      "ä": 153,
      "å": 154,
      "æ": 155,
      "ç": 156,
      "è": 157,
      "é": 158,
      "ë": 159,
      "ì": 160,
      "í": 161,
      "ï": 162,
      "ĉ": 163,
      "Ċ": 164,
      "Ġ": 165,
      "Ģ": 166,
      "ģ": 167,
      "Ĥ": 168,
      "ĥ": 169,
      "Ħ": 170,
      "ħ": 171,
      "Ĩ": 172,
      "ĩ": 173,
      "Ī": 174,
      "ī": 175,
      "Ĭ": 176,
      "ĭ": 177,
      "Į": 178,
      "į": 179,
      "İ": 180,
      "ı": 181,
      "Ĳ": 182,
      "ĳ": 183,
      "Ĵ": 184,
      "ĵ": 185,
      "Ķ": 186,
      "ķ": 187,
      "ĸ": 188,
      "Ĺ": 189,
      "ĺ": 190,
      "Ļ": 191,
      "ļ": 192,
      "Ľ": 193,
      "ľ": 194,
      "Ŀ": 195,
      "ŀ": 196,
      "Ł": 197,
      "ł": 198,
      "Ń": 199,
      "Ġt": 200,
      "he": 201,
      "Ġa": 202,
      "Ġs": 203,
      "in": 204,
      "Ġthe": 205,
      "Ġw": 206,
      "nd": 207,
      "re": 208,
      "ed": 209,
      "Ġo": 210,
      "er": 211,
      "Ġb": 212,
      "Ġand": 213,
      "it": 214,
      "Ġto": 215,
      "Ġc": 216,
      "at": 217,
      "Ġf": 218,
      "on": 219,
      "Ġh": 220,
      "Ġp": 221,
      "ou": 222,
      "is": 223,
      "en": 224,
      "an": 225,
      "Ġm": 226,
      "Ġd": 227,
      "as": 228,
      "or": 229,
      "ing": 230,
      "es": 231,
      "ar": 232,
      "Ġl": 233,
      "al": 234,
      "om": 235,
      "Ġof": 236,
      "Ġin": 237,
      "il": 238,
      "ĠT": 239,
      "Ġhe": 240,
      "ic": 241,
      "Ġn": 242,
      "Ġth": 243,
      "ay": 244,
      "Ġg": 245,
      "Ġwas": 246,
      "id": 247,
      "le": 248,
      "im": 249,
      "ĠS": 250,
      "Ġe": 251,
      "ion": 252,
      "ad": 253,
      "et": 254,
      "ut": 255,
      "ent": 256,
      "ot": 257,
      "ĠThe": 258,
      "el": 259,
      "Ġit": 260,
      "ow": 261,
      "ac": 262,
      "ir": 263,
      "Ġre": 264,
      "ve": 265,
      "ver": 266,
      "Ġu": 267,
      "Ġbe": 268,
      "Ġsa": 269,
      "ĠH": 270,
      "ig": 271,
      "st": 272,
      "ly": 273,
      "ro": 274,
      "am": 275,
      "Ġst": 276,
      "ĠI": 277,
      "Ġon": 278,
      "Ġy": 279,
      "Ġthat": 280,
      "ith": 281,
      "ol": 282,
      "Ġis": 283,
      "Ġfor": 284,
      "Ġha": 285,
      "Ġwith": 286,
      "ec": 287,
      "Ġher": 288,
      "ri": 289,
      "se": 290,
      "ld": 291,
      "pp": 292,
      "ĠHe": 293,
      "oo": 294,
      "ĠA": 295,
      "ce": 296,
      "ĠShe": 297,
      "ke": 298,
      "ur": 299,
      "Ġyou": 300,
      "ĠL": 301,
      "Ġ\"": 302,
      "ul": 303,
      "her": 304,
      "ĠB": 305,
      "Ġas": 306,
      "Ġwh": 307,
      "ĠM": 308,
      "ĠThey": 309,
      "Ġr": 310,
      "Ġan": 311,
      "ation": 312,
      "ant": 313,
      "ily": 314,
      "Ġal": 315,
      "Ġwe": 316,
      "Ġsaid": 317,
      "Ġpl": 318,
      "un": 319,
      "ch": 320,
      "Ġhis": 321,
      "ked": 322,
      "ter": 323,
      "Ġso": 324,
      "Ġshe": 325,
      "ĠC": 326,
      "On": 327,
      "Ġare": 328,
      "very": 329,
      "ould": 330,
      "'s": 331,
      "The": 332,
      "ore": 333,
      "Ġthey": 334,
      "Ġsh": 335,
      "Ġnot": 336,
      "if": 337,
      "ht": 338,
      "Ġday": 339,
      "Ġup": 340,
      "ill": 341,
      "âĢ": 342,
      "ain": 343,
      "Ġne": 344,
      "ome": 345,
      "Ġhad": 346,
      "um": 347,
      "Ġex": 348,
      "ag": 349,
      "Ġat": 350,
      "rom": 351,
      "rou": 352,
      "ct": 353,
      "Ġk": 354,
      "Ġplay": 355,
      "Ġli": 356,
      "end": 357,
      "op": 358,
      "red": 359,
      "ab": 360,
      "Ġor": 361,
      "ĠLily": 362,
      "Ġdo": 363,
      "Ġse": 364,
      "all": 365,
      "art": 366,
      "ide": 367,
      "us": 368,
      "itt": 369,
      "ime": 370,
      "Ġmom": 371,
      "em": 372,
      "ers": 373,
      "Ġbut": 374,
      "Ġcon": 375,
      "Ġ1": 376,
      "ĠW": 377,
      "Ġsp": 378,
      "ĠP": 379,
      "ack": 380,
      "ist": 381,
      "my": 382,
      "Ġthere": 383,
      "ure": 384,
      "est": 385,
      "Ġhave": 386,
      "ard": 387,
      "Ġtime": 388,
      "ry": 389,
      "Ġ(": 390,
      "Ġcan": 391,
      "Ġwere": 392,
      "and": 393,
      "th": 394,
      "Ġhapp": 395,
      "ess": 396,
      "Ġwant": 397,
      "ĠIt": 398,
      "Ġvery": 399,
      "nt": 400,
      "Ġpro": 401,
      "ake": 402,
      "ved": 403,
      "os": 404,
      "Ġtheir": 405,
      "Ġfrom": 406,
      "ud": 407,
      "ug": 408,
      "ate": 409,
      "ight": 410,
      "Ġv": 411,
      "qu": 412,
      "ĠJ": 413,
      "ĠD": 414,
      "ĠE": 415,
      "ittle": 416,
      "Ġsm": 417,
      "Ġlo": 418,
      "ect": 419,
      "Ġby": 420,
      "Ġlittle": 421,
      "Ġle": 422,
      "hen": 423,
      "Ġcom": 424,
      "ĠF": 425,
      "Ġj": 426,
      ".\"": 427,
      "Ġch": 428,
      "ap": 429,
      "ies": 430,
      "ind": 431,
      "ell": 432,
      "Ġbig": 433,
      "Ġall": 434,
      "Ġout": 435,
      "Ġhappy": 436,
      "Ġgo": 437,
      "riend": 438,
      "ive": 439,
      "Ġthem": 440,
      "ood": 441,
      "Ġfriend": 442,
      "ity": 443,
      "Ġsaw": 444,
      "'t": 445,
      "One": 446,
      "Ġwor": 447,
      "uc": 448,
      "Ġbo": 449,
      "ĠĊ": 450,
      "ook": 451,
      "ment": 452,
      "res": 453,
      "ial": 454,
      "ther": 455,
      "Ġcl": 456,
      "are": 457,
      "ort": 458,
      "ĠR": 459,
      "out": 460,
      "ep": 461,
      "Ġab": 462,
      "Ġhim": 463,
      "ust": 464,
      "ong": 465,
      "ĠN": 466,
      "ays": 467,
      "Once": 468,
      "Ġtoo": 469,
      "hed": 470,
      "one": 471,
      "Ġman": 472,
      "Ġcould": 473,
      "ast": 474,
      "!\"": 475,
      "ĠG": 476,
      "ĠTim": 477,
      "Ġkn": 478,
      "Ġ2": 479,
      "ally": 480,
      "od": 481,
      "Ġtr": 482,
      "Ġsc": 483,
      "pl": 484,
      "round": 485,
      "our": 486,
      "ew": 487,
      "Ġhel": 488,
      "Ġupon": 489,
      "ak": 490,
      "ous": 491,
      "ice": 492,
      "irl": 493,
      "iv": 494,
      "Ġdid": 495,
      "Ġme": 496,
      "ound": 497,
      "ame": 498,
      "Ġthis": 499,
      "Ġwanted": 500,
      "Ġde": 501,
      "Ġgirl": 502,
      "Ġother": 503,
      "Ġint": 504,
      "Ġsu": 505,
      "Ġag": 506,
      "oc": 507,
      "ark": 508,
      "Ġhelp": 509,
      "own": 510,
      "Ġsome": 511,
      "00": 512,
      "ater": 513,
      "Ġen": 514,
      "ine": 515,
      "Ġro": 516,
      "Ġwho": 517,
      "Ġwould": 518,
      "hing": 519,
      "ear": 520,
      "ang": 521,
      "ra": 522,
      "og": 523,
      "ful": 524,
      "Ġmore": 525,
      "ia": 526,
      "Ġsmil": 527,
      "ree": 528,
      "Ġback": 529,
      "oug": 530,
      "Ġwill": 531,
      "Ġim": 532,
      "ace": 533,
      "ings": 534,
      "Ġwent": 535,
      "Ġus": 536,
      "act": 537,
      "Ġgr": 538,
      "Ġone": 539,
      "ich": 540,
      "pt": 541,
      "Ġfun": 542,
      "ff": 543,
      "ade": 544,
      "iz": 545,
      "ach": 546,
      "ical": 547,
      "amed": 548,
      "Ġlike": 549,
      "Ġad": 550,
      "ost": 551,
      "reat": 552,
      "Ġfriends": 553,
      "ĠBen": 554,
      "ue": 555,
      "Ġnew": 556,
      "You": 557,
      "side": 558,
      "Ġyour": 559,
      "ick": 560,
      "ions": 561,
      "low": 562,
      "Ġno": 563,
      "Ġwhen": 564,
      "?\"": 565,
      "av": 566,
      "Ġwhat": 567,
      "âĢĻ": 568,
      "omet": 569,
      "age": 570,
      "Ġabout": 571,
      "elt": 572,
      "Ġthan": 573,
      "Ġbec": 574,
      "get": 575,
      "Ġdis": 576,
      "Ġnamed": 577,
      "Ġsee": 578,
      "Ġaround": 579,
      "ond": 580,
      "ird": 581,
      "ĠOne": 582,
      "ary": 583,
      "ĠIn": 584,
      "ited": 585,
      "Ġcont": 586,
      "ated": 587,
      "Ġpr": 588,
      "ild": 589,
      "Ġmake": 590,
      "ite": 591,
      "ie": 592,
      "Ġbr": 593,
      "ans": 594,
      "fe": 595,
      "ip": 596,
      "ĠU": 597,
      "ass": 598,
      "Ġloved": 599,
      "Ġhas": 600,
      "Ġstart": 601,
      "ys": 602,
      "able": 603,
      "Ġdec": 604,
      "ĠTom": 605,
      "Ġbl": 606,
      "ks": 607,
      "Ġwhich": 608,
      "ĠTh": 609,
      "Ġloo": 610,
      "Ġasked": 611,
      "Ġfelt": 612,
      "Ġmade": 613,
      "per": 614,
      "way": 615,
      "Ġsomet": 616,
      ",\"": 617,
      "Ġfe": 618,
      "orm": 619,
      "ĠTimmy": 620,
      "Ġev": 621,
      "Ġsmiled": 622,
      "Ġpe": 623,
      "ĠBut": 624,
      "use": 625,
      "Ġfound": 626,
      "ĠâĢ": 627,
      "Ġlooked": 628,
      "Ġar": 629,
      "Ġac": 630,
      "Ġcar": 631,
      "ber": 632,
      "ish": 633,
      "Ġpre": 634,
      "so": 635,
      "ared": 636,
      "ase": 637,
      "ress": 638,
      "Ġbird": 639,
      "Ġagain": 640,
      "Ġper": 641,
      "Ġthen": 642,
      "Ġits": 643,
      "Ġ19": 644,
      "Ġcomp": 645,
      "Ġcol": 646,
      "Ġinto": 647,
      "Ġqu": 648,
      "ile": 649,
      "Ġres": 650,
      "ble": 651,
      "Ġget": 652,
      "Ġtw": 653,
      "arn": 654,
      "Ġboy": 655,
      "ĠO": 656,
      "uch": 657,
      "Ġimp": 658,
      "Ġinc": 659,
      "ely": 660,
      "Ġun": 661,
      "ult": 662,
      "ub": 663,
      "Ġaway": 664,
      "Ġspec": 665,
      "ations": 666,
      "ĠYou": 667,
      "Ġgood": 668,
      "Ġover": 669,
      "Ġsays": 670,
      "Ġtoget": 671,
      "Ġtogether": 672,
      "ance": 673,
      "Ġlook": 674,
      "Ġany": 675,
      "ence": 676,
      "Ġhow": 677,
      "fter": 678,
      "Ġput": 679,
      "Ġsomething": 680,
      "Ġalso": 681,
      "here": 682,
      "ory": 683,
      "ire": 684,
      "ign": 685,
      "ave": 686,
      "Ġexc": 687,
      "Ġapp": 688,
      "ause": 689,
      "Ġevery": 690,
      "ob": 691,
      "Ġhome": 692,
      "Ġstarted": 693,
      "Lily": 694,
      "ge": 695,
      "nder": 696,
      "ise": 697,
      "vel": 698,
      "ren": 699,
      "ents": 700,
      "Ġran": 701,
      "ount": 702,
      "Ġla": 703,
      "uct": 704,
      "Ġif": 705,
      "ried": 706,
      "Ã¢": 707,
      "Ġpart": 708,
      "âĤ": 709,
      "âĤ¬": 710,
      "Ġbet": 711,
      "Ġpark": 712,
      "Ġfind": 713,
      "Ġdown": 714,
      "ax": 715,
      "ors": 716,
      "Ġstr": 717,
      "hat": 718,
      "Ġsw": 719,
      "Ġco": 720,
      "ens": 721,
      "ll": 722,
      "Ġsad": 723,
      "ided": 724,
      "als": 725,
      "ople": 726,
      "pped": 727,
      "mer": 728,
      "Ġke": 729,
      "ord": 730,
      "ose": 731,
      "Ġyear": 732,
      "Ġwater": 733,
      "Ġthoug": 734,
      "Ġam": 735,
      "Ġthings": 736,
      "ouse": 737,
      "Ġknow": 738,
      "Ġneed": 739,
      "Ġmy": 740,
      "Ġhug": 741,
      "Ġbeen": 742,
      "roug": 743,
      "ĠK": 744,
      "Ġmany": 745,
      "Ġcare": 746,
      "Ġunder": 747,
      "Ġwal": 748,
      "ail": 749,
      "Ġlearn": 750,
      "other": 751,
      "Ġoff": 752,
      "hn": 753,
      "ĠSt": 754,
      "king": 755,
      "oth": 756,
      "igh": 757,
      "Ġfl": 758,
      "Ġpeople": 759,
      "ict": 760,
      "Ġgot": 761,
      "ĠAn": 762,
      "Ġplaying": 763,
      "Ġcame": 764,
      "Ġmuch": 765,
      "Ġsur": 766,
      "âĢĿ": 767,
      "irst": 768,
      "Ġshow": 769,
      ").": 770,
      "olog": 771,
      "les": 772,
      "Ġtwo": 773,
      "ways": 774,
      "Ġfeel": 775,
      "ons": 776,
      "ny": 777,
      "ving": 778,
      "int": 779,
      "ian": 780,
      "lect": 781,
      "Ġtake": 782,
      "urn": 783,
      "Ġjust": 784,
      "Ġte": 785,
      "iss": 786,
      "ft": 787,
      "Ġinf": 788,
      "Ġdog": 789,
      "na": 790,
      "Ġlong": 791,
      "cess": 792,
      "wn": 793,
      "Ġbecause": 794,
      "ition": 795,
      "Ġdecided": 796,
      "ious": 797,
      "Ġmay": 798,
      "Ġexcited": 799,
      "uck": 800,
      "Ġsk": 801,
      "ĠCh": 802,
      "Ġpo": 803,
      "ove": 804,
      "udd": 805,
      "Ġold": 806,
      "Ġalways": 807,
      "Ġdif": 808,
      "Ġliked": 809,
      "Ġcall": 810,
      "elf": 811,
      "Ġuse": 812,
      "Ġthought": 813,
      "ened": 814,
      "Ġtook": 815,
      "anc": 816,
      "Ġstud": 817,
      "Ġeach": 818,
      "Ġrec": 819,
      "ied": 820,
      "ty": 821,
      "Ġcomm": 822,
      "Ġsy": 823,
      "ĠV": 824,
      "old": 825,
      "ates": 826,
      "ĠWe": 827,
      "Ġlot": 828,
      "Ġhand": 829,
      "ara": 830,
      "Ġ-": 831,
      "Ġexpl": 832,
      "rent": 833,
      "ered": 834,
      "Ġtree": 835,
      "Ġrem": 836,
      "hes": 837,
      "Ġspecial": 838,
      "Ġsmall": 839,
      "led": 840,
      "Ġeven": 841,
      "Ġdidn": 842,
      "Ġshould": 843,
      "Ġact": 844,
      "rough": 845,
      "Ġop": 846,
      "Ġscared": 847,
      "Ġoutside": 848,
      "Ġfirst": 849,
      "Ġdad": 850,
      "vent": 851,
      "ged": 852,
      "They": 853,
      "Ġball": 854,
      "ink": 855,
      "fore": 856,
      "Ġ3": 857,
      "Ġend": 858,
      "vers": 859,
      "oy": 860,
      "xt": 861,
      "Ġonly": 862,
      "ient": 863,
      "Ġchild": 864,
      "Ġrel": 865,
      "Ġcat": 866,
      "Ġour": 867,
      "ank": 868,
      "Ġcr": 869,
      "Ġrun": 870,
      "Ġbu": 871,
      "Ġtoys": 872,
      "ĠMom": 873,
      "ĠâĢľ": 874,
      "Th": 875,
      "Ġwork": 876,
      "ĠThis": 877,
      "Ġthrough": 878,
      "Ġwr": 879,
      "Ġmommy": 880,
      "arm": 881,
      "Ġfam": 882,
      "Ġmost": 883,
      "orn": 884,
      "Ġind": 885,
      "Ġdes": 886,
      "Ġway": 887,
      "Ġrep": 888,
      "we": 889,
      "tern": 890,
      "Ġused": 891,
      "ures": 892,
      "erm": 893,
      "Ġhouse": 894,
      "Ġgen": 895,
      "Ġche": 896,
      "Ġred": 897,
      "ĠSam": 898,
      "ject": 899,
      "Ġthese": 900,
      "gan": 901,
      "Ġsun": 902,
      "Ġcle": 903,
      "Ġ200": 904,
      "Ġsuch": 905,
      "lud": 906,
      "dy": 907,
      "ath": 908,
      "Ġnever": 909,
      "ump": 910,
      "Ġknew": 911,
      "But": 912,
      "Ġwhere": 913,
      "ational": 914,
      "udden": 915,
      "amp": 916,
      "Ġafter": 917,
      "Ġanim": 918,
      "Ġfr": 919,
      "ĠMax": 920,
      "Ġlaug": 921,
      "Ġdiffe": 922,
      "Ġwa": 923,
      "ished": 924,
      "ange": 925,
      "Ġboth": 926,
      "Ġyears": 927,
      "velop": 928,
      "ĠAnd": 929,
      "ib": 930,
      "ific": 931,
      "Ġunt": 932,
      "ual": 933,
      "enc": 934,
      "Ġsl": 935,
      "ating": 936,
      "Ġgl": 937,
      "aking": 938,
      "ĠAs": 939,
      "pr": 940,
      "Ġtoy": 941,
      "alth": 942,
      "Ġtold": 943,
      "Ġwat": 944,
      "uddenly": 945,
      "Ġcareful": 946,
      "me": 947,
      "Ġhigh": 948,
      "ĠUn": 949,
      "gr": 950,
      "Ġph": 951,
      "Ġbetter": 952,
      "Ġinside": 953,
      "orry": 954,
      "stem": 955,
      "Ġstill": 956,
      "Ġdr": 957,
      "Ġread": 958,
      "Ġgave": 959,
      "arch": 960,
      "ities": 961,
      "rop": 962,
      "Ġbeing": 963,
      "ough": 964,
      "Ġnow": 965,
      "Ġcalled": 966,
      "Ġuntil": 967,
      "Ġob": 968,
      "iet": 969,
      "ĠSo": 970,
      "air": 971,
      "Ġbest": 972,
      "Ġimport": 973,
      "Ġroom": 974,
      "oll": 975,
      "Ġsay": 976,
      "ollow": 977,
      "Ġem": 978,
      "),": 979,
      "Ġ20": 980,
      "Ġright": 981,
      "Ġlet": 982,
      "Ġbefore": 983,
      "Ġexp": 984,
      "Ġtried": 985,
      "ular": 986,
      "Ġdon": 987,
      "Ġinclud": 988,
      "Ġatt": 989,
      "Ġfin": 990,
      "ting": 991,
      "erv": 992,
      "ull": 993,
      "Ġplayed": 994,
      "ife": 995,
      "ool": 996,
      "ĠJo": 997,
      "oss": 998,
      "oud": 999,
      "Ġtry": 1000,
      "ized": 1001,
      "Ġsorry": 1002,
      "rib": 1003,
      "Ġheard": 1004,
      "Ġeff": 1005,
      "ower": 1006,
      "roud": 1007,
      "str": 1008,
      "Ġproud": 1009,
      "ix": 1010,
      "Ġcouldn": 1011,
      "ased": 1012,
      "Ġacc": 1013,
      "Ġown": 1014,
      "It": 1015,
      "Ġflow": 1016,
      "Ġlist": 1017,
      "Ġreg": 1018,
      "ĠEvery": 1019,
      "Ġworld": 1020,
      "Ġmet": 1021,
      "Ġsn": 1022,
      "Ġprov": 1023,
      "Ġkind": 1024,
      "Ġbook": 1025,
      "Ġcons": 1026,
      "Ġpret": 1027,
      "Ġbel": 1028,
      "ane": 1029,
      "ward": 1030,
      "Ġwhile": 1031,
      "Ġbox": 1032,
      "ars": 1033,
      "aut": 1034,
      "Ġfollow": 1035,
      "lic": 1036,
      "az": 1037,
      "let": 1038,
      "Ġdifferent": 1039,
      "by": 1040,
      "ible": 1041,
      "ric": 1042,
      "He": 1043,
      "uring": 1044,
      "Ġcount": 1045,
      "Ġdevelop": 1046,
      "Ġfamily": 1047,
      "ert": 1048,
      "ph": 1049,
      "ning": 1050,
      "Ġhard": 1051,
      "Ġadd": 1052,
      "ident": 1053,
      "ves": 1054,
      "imes": 1055,
      "ins": 1056,
      "ms": 1057,
      "Ġprod": 1058,
      "Ġimportant": 1059,
      "ative": 1060,
      "Ġcome": 1061,
      "Ġfood": 1062,
      "ever": 1063,
      "Ġhugged": 1064,
      "abb": 1065,
      "its": 1066,
      "ck": 1067,
      "Ġlearned": 1068,
      "Ġmon": 1069,
      "ics": 1070,
      "ee": 1071,
      "Ġeat": 1072,
      "Tom": 1073,
      "Ġide": 1074,
      "Ġfore": 1075,
      "Ġsystem": 1076,
      "Ġpol": 1077,
      "Ġdoes": 1078,
      "'m": 1079,
      "ually": 1080,
      "urt": 1081,
      "ĠSara": 1082,
      "ĠWhen": 1083,
      "ĠHer": 1084,
      "Ġgreat": 1085,
      "In": 1086,
      "self": 1087,
      "Ġpres": 1088,
      "ĠAnna": 1089,
      "Ġclos": 1090,
      "Ġreal": 1091,
      "ched": 1092,
      "ĠJack": 1093,
      "Ġmo": 1094,
      "Ġ4": 1095,
      "Ġbear": 1096,
      "ĠHis": 1097,
      "ĠSp": 1098,
      "Ġass": 1099,
      "Mom": 1100,
      "up": 1101,
      "Ġanimals": 1102,
      "Ġsupp": 1103,
      "ont": 1104,
      "akes": 1105,
      "Ġpat": 1106,
      "ised": 1107,
      "Ġthree": 1108,
      "ments": 1109,
      "Ġnice": 1110,
      "Ġpers": 1111,
      "Ġset": 1112,
      "Ġdisc": 1113,
      "yp": 1114,
      "ng": 1115,
      "Ġwell": 1116,
      "meric": 1117,
      "Ġnum": 1118,
      "Ġinv": 1119,
      "chool": 1120,
      "Ġkeep": 1121,
      "gry": 1122,
      "be": 1123,
      "ution": 1124,
      "cc": 1125,
      "Ġsub": 1126,
      "ries": 1127,
      "arden": 1128,
      "opped": 1129,
      "..": 1130,
      "ream": 1131,
      "Ġgre": 1132,
      "ility": 1133,
      "Ġturn": 1134,
      "iny": 1135,
      "ros": 1136,
      "ween": 1137,
      "gy": 1138,
      "ather": 1139,
      "Ġ18": 1140,
      "ology": 1141,
      "Ġbeaut": 1142,
      "ants": 1143,
      "Ġsign": 1144,
      "form": 1145,
      "Ġmed": 1146,
      "hy": 1147,
      "br": 1148,
      "Ġplace": 1149,
      "Ġgarden": 1150,
      "Ġsky": 1151,
      "Ġchildren": 1152,
      "Yes": 1153,
      "Ġfle": 1154,
      "Ġlar": 1155,
      "Ġinter": 1156,
      "Ġnear": 1157,
      "Ġsec": 1158,
      "Ġ5": 1159,
      "Ġless": 1160,
      "Ġlove": 1161,
      "Ġbetween": 1162,
      "ists": 1163,
      "When": 1164,
      "ma": 1165,
      "Ġmod": 1166,
      "ired": 1167,
      "Ġhum": 1168,
      "ven": 1169,
      "Ġtreat": 1170,
      "Ġground": 1171,
      "iful": 1172,
      "ĠFrom": 1173,
      "Ġrese": 1174,
      "iel": 1175,
      "day": 1176,
      "Ġdist": 1177,
      "Ġsame": 1178,
      "read": 1179,
      "Ġclim": 1180,
      "Ġsafe": 1181,
      "Ġey": 1182,
      "Ġgoing": 1183,
      "Ġlived": 1184,
      "Ġjump": 1185,
      "Ġdet": 1186,
      "ivers": 1187,
      "Ġwind": 1188,
      "Ġbeautiful": 1189,
      "Ġprot": 1190,
      "Ġthanked": 1191,
      "ĠAmeric": 1192,
      "ret": 1193,
      "Ġlots": 1194,
      "Ġnext": 1195,
      "What": 1196,
      "Ġcent": 1197,
      "ces": 1198,
      "raw": 1199,
      "Ġtre": 1200,
      "Ġinform": 1201,
      "Ġdel": 1202,
      "Ġnod": 1203,
      "land": 1204,
      "Ġbeh": 1205,
      "ĠY": 1206,
      "vern": 1207,
      "ĠAl": 1208,
      "ism": 1209,
      "Ġclean": 1210,
      "Ġlaughed": 1211,
      "ined": 1212,
      "ience": 1213,
      "ĠThen": 1214,
      "Ġform": 1215,
      "Ġcontin": 1216,
      "ature": 1217,
      "ines": 1218,
      "Ġhealth": 1219,
      "Ġstay": 1220,
      "thing": 1221,
      "Ġresp": 1222,
      "Ġtrans": 1223,
      "Ġthose": 1224,
      "Ġloud": 1225,
      "Ġunderst": 1226,
      "Ġgener": 1227,
      "ock": 1228,
      "Ġbad": 1229,
      "cept": 1230,
      "ere": 1231,
      "ĠMia": 1232,
      "omm": 1233,
      "ural": 1234,
      "echn": 1235,
      "ute": 1236,
      "Ġed": 1237,
      "roup": 1238,
      "ten": 1239,
      "ield": 1240,
      "Ġ201": 1241,
      "Ġvis": 1242,
      "Ġfar": 1243,
      "icked": 1244,
      "Ġshare": 1245,
      "Ġexplore": 1246,
      "Ġsoon": 1247,
      "ner": 1248,
      "arent": 1249,
      "Ġidea": 1250,
      "Ġhurt": 1251,
      "Ġfly": 1252,
      "Ġanother": 1253,
      "Ġbra": 1254,
      "Ġhead": 1255,
      "Ġloc": 1256,
      "Åĵ": 1257,
      "Ġext": 1258,
      "Ġdoll": 1259,
      "Ġpub": 1260,
      "Ġser": 1261,
      "Ġstrong": 1262,
      "cent": 1263,
      "aug": 1264,
      "Ġbro": 1265,
      "Ġpain": 1266,
      "ex": 1267,
      "io": 1268,
      "Ġgive": 1269,
      "Ġbecame": 1270,
      "Ġsurpr": 1271,
      "19": 1272,
      "Ġhere": 1273,
      "We": 1274,
      "row": 1275,
      "Ġcour": 1276,
      "Ġent": 1277,
      "ale": 1278,
      "iew": 1279,
      "ids": 1280,
      "ember": 1281,
      "ef": 1282,
      "||": 1283,
      "Ġrepl": 1284,
      "ases": 1285,
      "Ġdep": 1286,
      "ucy": 1287,
      "ĠAr": 1288,
      "Ġpoint": 1289,
      "ness": 1290,
      "Ġkept": 1291,
      "ement": 1292,
      "gram": 1293,
      "Tim": 1294,
      "ince": 1295,
      "ger": 1296,
      "Ġinformation": 1297,
      "ize": 1298,
      "irect": 1299,
      "iron": 1300,
      "ier": 1301,
      "Ġflew": 1302,
      "Ġmean": 1303,
      "Ġlife": 1304,
      "ained": 1305,
      "Ġschool": 1306,
      "Ġpict": 1307,
      "Ġmin": 1308,
      "Ġeffect": 1309,
      "iting": 1310,
      "ross": 1311,
      "ork": 1312,
      "kay": 1313,
      "Ġart": 1314,
      "ĠÃ¢": 1315,
      "Ġair": 1316,
      "Ġsim": 1317,
      "Ġcell": 1318,
      "Ġword": 1319,
      "und": 1320,
      "Ġmight": 1321,
      "Ġwalked": 1322,
      "lease": 1323,
      "man": 1324,
      "Ġfact": 1325,
      "Ġgrow": 1326,
      "Ġpop": 1327,
      "Ġcreat": 1328,
      "Ġmag": 1329,
      "Ġfast": 1330,
      "Ġbrave": 1331,
      "ages": 1332,
      "Ġcry": 1333,
      "ĠJohn": 1334,
      "rap": 1335,
      "oun": 1336,
      "Ġland": 1337,
      "Ġlight": 1338,
      "ues": 1339,
      "Ġmat": 1340,
      "Ġpower": 1341,
      "Ġfish": 1342,
      "This": 1343,
      "Ġincre": 1344,
      "Ġname": 1345,
      "Ġexper": 1346,
      "Let": 1347,
      "Ġpretty": 1348,
      "uction": 1349,
      "Ġtal": 1350,
      "ott": 1351,
      "Ġproble": 1352,
      "An": 1353,
      "Ġopened": 1354,
      "Ġever": 1355,
      "Ġrest": 1356,
      "Ġbed": 1357,
      "der": 1358,
      "Ġtest": 1359,
      "emb": 1360,
      "illy": 1361,
      "Ġgiv": 1362,
      "Ġbus": 1363,
      "Ġbuild": 1364,
      "aw": 1365,
      "Ġquick": 1366,
      "Ġgroup": 1367,
      "Ġmove": 1368,
      "Ġref": 1369,
      "Ġangry": 1370,
      "Ġcap": 1371,
      "Ġtop": 1372,
      "ĠBr": 1373,
      "Ġsing": 1374,
      "Ġmust": 1375,
      "Ġopen": 1376,
      "Ġear": 1377,
      "outh": 1378,
      "ains": 1379,
      "So": 1380,
      "ĠCan": 1381,
      "Ġfew": 1382,
      "Ġperson": 1383,
      "Ġaut": 1384,
      "ne": 1385,
      "Ġpartic": 1386,
      "Ġunderstand": 1387,
      "Ġgu": 1388,
      "ĠNew": 1389,
      "ices": 1390,
      "Ġfeeling": 1391,
      "iversity": 1392,
      "Ġsound": 1393,
      "Ġcommun": 1394,
      "Ġdi": 1395,
      "ĠThere": 1396,
      "ummy": 1397,
      "ames": 1398,
      "Ġdoor": 1399,
      "Ġinst": 1400,
      "Ġprom": 1401,
      "Ġrequ": 1402,
      "Ġcond": 1403,
      "ection": 1404,
      "ded": 1405,
      "Ġ6": 1406,
      "Ġlooking": 1407,
      "Ġduring": 1408,
      "Ġnoise": 1409,
      "ata": 1410,
      "ters": 1411,
      "hip": 1412,
      "Ġstudy": 1413,
      "Ġplan": 1414,
      "Ġdef": 1415,
      "That": 1416,
      "Ġhands": 1417,
      "Ġshiny": 1418,
      "Ġz": 1419,
      "Ġmus": 1420,
      "Ġadvent": 1421,
      "iced": 1422,
      "Ġforest": 1423,
      "Ġresult": 1424,
      "con": 1425,
      "No": 1426,
      "Ġbre": 1427,
      "ugg": 1428,
      "uri": 1429,
      "joy": 1430,
      "Ġhaving": 1431,
      "As": 1432,
      "ides": 1433,
      "oice": 1434,
      "Ġstore": 1435,
      "ĠPro": 1436,
      "ury": 1437,
      "Ġlead": 1438,
      "ĠFor": 1439,
      "Ġeyes": 1440,
      "Ġsure": 1441,
      "ern": 1442,
      "Ġav": 1443,
      "Ġorgan": 1444,
      "Ġtyp": 1445,
      "any": 1446,
      "ash": 1447,
      "aper": 1448,
      "Ġtechn": 1449,
      "ically": 1450,
      "ĠRe": 1451,
      "ets": 1452,
      "Ben": 1453,
      "Ġwom": 1454,
      "ple": 1455,
      "Ġsoc": 1456,
      "ike": 1457,
      "leep": 1458,
      "Ġblue": 1459,
      "Ġstand": 1460,
      "Ġparent": 1461,
      "ued": 1462,
      "ital": 1463,
      "Ġpicked": 1464,
      "Ġwalking": 1465,
      "Ġclimb": 1466,
      "Ġret": 1467,
      "ĠIf": 1468,
      "Ġvar": 1469,
      "Ġtell": 1470,
      "000": 1471,
      "Ġins": 1472,
      "Ġshowed": 1473,
      "ts": 1474,
      "ĠLucy": 1475,
      "viron": 1476,
      "Ġgovern": 1477,
      "Ġwatch": 1478,
      "Ġelect": 1479,
      "the": 1480,
      "Ġthink": 1481,
      "rol": 1482,
      "Ġwond": 1483,
      "ox": 1484,
      "\".": 1485,
      "Ġsqu": 1486,
      "Ġenjoy": 1487,
      "ached": 1488,
      "Ġoften": 1489,
      "Ġprocess": 1490,
      "Ġnumber": 1491,
      "Ġstory": 1492,
      "ially": 1493,
      "Ġrain": 1494,
      "Ġhop": 1495,
      "ĠâĢĵ": 1496,
      "ĠHow": 1497,
      "Ġmar": 1498,
      "Ġdri": 1499,
      "Ġlik": 1500,
      "Ġcur": 1501,
      "Ġface": 1502,
      "Ġwithout": 1503,
      "Ġnodded": 1504,
      "Ġjo": 1505,
      "Ġquickly": 1506,
      "Ġleft": 1507,
      "Ġ199": 1508,
      "Ġhist": 1509,
      "Ġseen": 1510,
      "Ġmaking": 1511,
      "Ġbelie": 1512,
      "Ġbit": 1513,
      "Ġlisten": 1514,
      "Ġwarm": 1515,
      "Ġocc": 1516,
      "els": 1517,
      "Ġable": 1518,
      "Ġnight": 1519,
      "Ġlevel": 1520,
      "Ġstopped": 1521,
      "ination": 1522,
      "Ġel": 1523,
      "Ġpass": 1524,
      "âĦ": 1525,
      "Ġsoft": 1526,
      "âĦ¢": 1527,
      "ample": 1528,
      "Ġleg": 1529,
      "aves": 1530,
      "Ġeveryone": 1531,
      "Ġprogram": 1532,
      "Ġdone": 1533,
      "Ġreally": 1534,
      "ĠThat": 1535,
      "Ġ7": 1536,
      "ĠSc": 1537,
      "Ġrock": 1538,
      "âĤ¬âĦ¢": 1539,
      "app": 1540,
      "Ġsol": 1541,
      "oney": 1542,
      "Ġfire": 1543,
      "Ġsmile": 1544,
      "Ġbegan": 1545,
      ".,": 1546,
      "aces": 1547,
      "ah": 1548,
      "ected": 1549,
      "Ġflowers": 1550,
      "ster": 1551,
      "Ġconf": 1552,
      "erest": 1553,
      "aring": 1554,
      "Ġval": 1555,
      "illed": 1556,
      "Ġamaz": 1557,
      "Ġdirect": 1558,
      "Ġusing": 1559,
      "Ġswe": 1560,
      "Ġcook": 1561,
      "uss": 1562,
      "Ġ10": 1563,
      "Ġbas": 1564,
      "ĠBob": 1565,
      "Ġwhy": 1566,
      "vironment": 1567,
      "Ġfav": 1568,
      "'re": 1569,
      "rel": 1570,
      "Ġfull": 1571,
      "ote": 1572,
      "Ġnoticed": 1573,
      "Ġothers": 1574,
      "Ġyell": 1575,
      "rog": 1576,
      "uce": 1577,
      "Ġresearch": 1578,
      "more": 1579,
      "Ġmess": 1580,
      "She": 1581,
      "com": 1582,
      "ling": 1583,
      "to": 1584,
      "used": 1585,
      "Ġdise": 1586,
      "Ġtruck": 1587,
      "ĠSuddenly": 1588,
      "ĠInd": 1589,
      "Ġpur": 1590,
      "Ġsit": 1591,
      "Thank": 1592,
      "Ġreport": 1593,
      "oon": 1594,
      "Ġlarge": 1595,
      "Ġposs": 1596,
      "Ġhuman": 1597,
      "uff": 1598,
      "Ġstick": 1599,
      "ead": 1600,
      "iec": 1601,
      "Ġboat": 1602,
      ".âĢĿ": 1603,
      "ergy": 1604,
      "Ġbirds": 1605,
      "Ġslide": 1606,
      "arth": 1607,
      "Ġactiv": 1608,
      "ider": 1609,
      "ories": 1610,
      "Ġinterest": 1611,
      "itc": 1612,
      "Ġdesign": 1613,
      "Ġdraw": 1614,
      "Ġhold": 1615,
      "âĢĶ": 1616,
      "ĠIs": 1617,
      "where": 1618,
      "Ġquest": 1619,
      "rew": 1620,
      "Ġpot": 1621,
      "te": 1622,
      "ral": 1623,
      "stit": 1624,
      "ium": 1625,
      "ole": 1626,
      "Ġmil": 1627,
      "Ġpract": 1628,
      "Ġclass": 1629,
      "Ġfield": 1630,
      "Ġrabb": 1631,
      "aj": 1632,
      "Ġfell": 1633,
      "Ġcloser": 1634,
      "Ġest": 1635,
      "inal": 1636,
      "ior": 1637,
      "Ġsuc": 1638,
      "Ġca": 1639,
      "Suddenly": 1640,
      "Ġstate": 1641,
      "Ġris": 1642,
      "Ġgame": 1643,
      "Ġdata": 1644,
      "ĠMay": 1645,
      "Ġgreen": 1646,
      "Ġpaper": 1647,
      "hers": 1648,
      "ĠDad": 1649,
      "Ġstop": 1650,
      "sw": 1651,
      "Ġvoice": 1652,
      "Ġneeded": 1653,
      "ĠDo": 1654,
      "ted": 1655,
      "Ġ'": 1656,
      "ulation": 1657,
      "Ġwalk": 1658,
      "Ġseem": 1659,
      "Ġdress": 1660,
      "Ġenough": 1661,
      "reed": 1662,
      "Ġfur": 1663,
      "ately": 1664,
      "less": 1665,
      "Ġpick": 1666,
      "Ġbody": 1667,
      "Ġlaw": 1668,
      "Ġshout": 1669,
      "Ġthing": 1670,
      "Ġparents": 1671,
      "Ġhun": 1672,
      "cle": 1673,
      "Ġeas": 1674,
      "Ġadv": 1675,
      "Ġpiec": 1676,
      "Ġhelped": 1677,
      "Ġflo": 1678,
      "ently": 1679,
      "zy": 1680,
      "Ġallow": 1681,
      "Ġcuri": 1682,
      "After": 1683,
      "Ġ8": 1684,
      "Ġexample": 1685,
      "Ġokay": 1686,
      "bye": 1687,
      "Ġreplied": 1688,
      "Ġben": 1689,
      "ional": 1690,
      "Ġsand": 1691,
      "Ġhig": 1692,
      "ĠSue": 1693,
      "Ġbright": 1694,
      "inc": 1695,
      "Ġve": 1696,
      "oot": 1697,
      "Ġlad": 1698,
      "conom": 1699,
      "ency": 1700,
      "orth": 1701,
      "aught": 1702,
      "Ġtri": 1703,
      "Ġbutter": 1704,
      "ton": 1705,
      "aining": 1706,
      "Ġwatched": 1707,
      "Ġsupport": 1708,
      "Ġthin": 1709,
      "ĠAll": 1710,
      "Ġpublic": 1711,
      "Ġside": 1712,
      "ĠAfter": 1713,
      "Ġcommon": 1714,
      "aster": 1715,
      "Ġteac": 1716,
      "Ġpresent": 1717,
      "ĠWhat": 1718,
      "ape": 1719,
      "Ġhimself": 1720,
      "Ġant": 1721,
      "icy": 1722,
      "ĠUniversity": 1723,
      "Ġmill": 1724,
      "Ġste": 1725,
      "Ġforg": 1726,
      "ission": 1727,
      "osp": 1728,
      "ov": 1729,
      "Ġstudents": 1730,
      "Ġagainst": 1731,
      "ĠAmerican": 1732,
      "Ġmain": 1733,
      "Ġincluding": 1734,
      "ians": 1735,
      "Ġele": 1736,
      "Ġes": 1737,
      "Look": 1738,
      "Ġbehind": 1739,
      "oring": 1740,
      "Ġgovernment": 1741,
      "Ġequ": 1742,
      "Ġreached": 1743,
      "Ġlater": 1744,
      "Ġgrand": 1745,
      "Ġhappened": 1746,
      "Ġbrother": 1747,
      "Ġcurious": 1748,
      "ĠGr": 1749,
      "asure": 1750,
      "Ġ9": 1751,
      "Ġlost": 1752,
      "Ġchang": 1753,
      "Ġenergy": 1754,
      "ina": 1755,
      "Ġlast": 1756,
      "Ġrabbit": 1757,
      "Ġtem": 1758,
      "Ġslow": 1759,
      "olly": 1760,
      "10": 1761,
      "ĠWh": 1762,
      "Ġknown": 1763,
      "Ġsat": 1764,
      "Ġcor": 1765,
      "Ġnec": 1766,
      "Ġwhite": 1767,
      "ila": 1768,
      "ives": 1769,
      "Ġchange": 1770,
      "Ġpar": 1771,
      "wards": 1772,
      "Ġchar": 1773,
      "Ġri": 1774,
      "Ġaff": 1775,
      "idd": 1776,
      "rence": 1777,
      "Ġcool": 1778,
      "Can": 1779,
      "Ġconc": 1780,
      "Ġgoodbye": 1781,
      "Ġwhe": 1782,
      "Ġkids": 1783,
      "Jo": 1784,
      "Ġsleep": 1785,
      "Ġfall": 1786,
      "20": 1787,
      "Ġheld": 1788,
      "Ġcoming": 1789,
      "Her": 1790,
      "Ġpu": 1791,
      "ĠCl": 1792,
      "Ġanymore": 1793,
      "Ġblack": 1794,
      "Ġmark": 1795,
      "Ġwait": 1796,
      "iety": 1797,
      "ais": 1798,
      "ron": 1799,
      "ĠAt": 1800,
      "Ġsour": 1801,
      "itions": 1802,
      "osed": 1803,
      "Ġfavor": 1804,
      "Ġgrass": 1805,
      "Ġsweet": 1806,
      "Ġcake": 1807,
      "Ġcolor": 1808,
      "Ġspe": 1809,
      "ĠEm": 1810,
      "rod": 1811,
      "Ġpercent": 1812,
      "itchen": 1813,
      "Ġdem": 1814,
      "ĠCon": 1815,
      "Ġclose": 1816,
      "iqu": 1817,
      "Ġappro": 1818,
      "ats": 1819,
      "anger": 1820,
      "gin": 1821,
      "Ġmakes": 1822,
      "ction": 1823,
      "ĠFl": 1824,
      "itical": 1825,
      "rought": 1826,
      "ract": 1827,
      "oci": 1828,
      "Ġcollect": 1829,
      "Ġoper": 1830,
      "Ġdark": 1831,
      "Ġfree": 1832,
      "pec": 1833,
      "Ġwood": 1834,
      "Ġkitchen": 1835,
      "Ġdoing": 1836,
      "ocks": 1837,
      "ense": 1838,
      "Ġcourse": 1839,
      "Ġready": 1840,
      "eral": 1841,
      "ĠLet": 1842,
      "ĠSpot": 1843,
      "Ġdoct": 1844,
      "aterial": 1845,
      "ended": 1846,
      "Ġcontrol": 1847,
      "Ġworked": 1848,
      "ĠZ": 1849,
      "Ġtrees": 1850,
      "inally": 1851,
      "ĠJane": 1852,
      "Ġenvironment": 1853,
      "Anna": 1854,
      "Ġsees": 1855,
      "Ġrunning": 1856,
      "med": 1857,
      "Ġice": 1858,
      "acter": 1859,
      "ush": 1860,
      "ced": 1861,
      "Ġcut": 1862,
      "Ġwords": 1863,
      "ĠComm": 1864,
      "ĠMommy": 1865,
      "Ġfix": 1866,
      "Ġtast": 1867,
      "ech": 1868,
      "Ġwonder": 1869,
      "rot": 1870,
      "Ġhair": 1871,
      "Ġterm": 1872,
      "Ġliving": 1873,
      "rove": 1874,
      "iter": 1875,
      "Ġdeep": 1876,
      "ording": 1877,
      "mb": 1878,
      "âĢľ": 1879,
      "Ġheart": 1880,
      "Ġgrabb": 1881,
      "Ġcold": 1882,
      "Ġyoung": 1883,
      "Ġarri": 1884,
      "Ġpress": 1885,
      "Ġphys": 1886,
      "Ġjumped": 1887,
      "Sara": 1888,
      "ek": 1889,
      "Ġiss": 1890,
      "Ġdeterm": 1891,
      "Ġbooks": 1892,
      "sy": 1893,
      "room": 1894,
      "unny": 1895,
      "Ġearly": 1896,
      "Ġeconom": 1897,
      "lished": 1898,
      "iod": 1899,
      "Ġcontinued": 1900,
      "Ġlow": 1901,
      "Ġeng": 1902,
      "of": 1903,
      "uced": 1904,
      "iver": 1905,
      "Ġglad": 1906,
      "Ġpri": 1907,
      "oral": 1908,
      "Ġbecome": 1909,
      "ator": 1910,
      "Ġobject": 1911,
      "Ġalong": 1912,
      "ung": 1913,
      "Ġgrabbed": 1914,
      "Ġrealized": 1915,
      "Ġflower": 1916,
      "Ġarea": 1917,
      "arc": 1918,
      "ĠRes": 1919,
      "Ġcatch": 1920,
      "Ġorig": 1921,
      "âĢĵ": 1922,
      "Ġcre": 1923,
      "itive": 1924,
      "Ġdisease": 1925,
      "ards": 1926,
      "Ġlooks": 1927,
      "Ġpast": 1928,
      "ĠOn": 1929,
      "aby": 1930,
      "Ġsometimes": 1931,
      "Ġanything": 1932,
      "Ġfollowed": 1933,
      "Ġ&": 1934,
      "ĠUnited": 1935,
      "ken": 1936,
      "Ġtoday": 1937,
      "Ġeduc": 1938,
      "ivid": 1939,
      "Ġbreak": 1940,
      "Ġscient": 1941,
      "Ġcal": 1942,
      "ization": 1943,
      "Ġacross": 1944,
      "Ġyellow": 1945,
      "lo": 1946,
      "Ġwomen": 1947,
      "Ġbutterf": 1948,
      "Ġdin": 1949,
      "ĠEveryone": 1950,
      "Ġadventure": 1951,
      "line": 1952,
      "Ġdevelopment": 1953,
      "rist": 1954,
      "eng": 1955,
      "Ġplant": 1956,
      "Ġsuccess": 1957,
      "ister": 1958,
      "Ġmother": 1959,
      "Ġpond": 1960,
      "ama": 1961,
      "Ġpicture": 1962,
      "Ġmoney": 1963,
      "Ġate": 1964,
      "Ġ15": 1965,
      "Ġmaterial": 1966,
      "Ġspecies": 1967,
      "Ġcir": 1968,
      "ograp": 1969,
      "Ġblood": 1970,
      "Ġhigher": 1971,
      "Ġfavorite": 1972,
      "ision": 1973,
      "Ġtouch": 1974,
      "ĠThese": 1975,
      "irt": 1976,
      "Ġsecond": 1977,
      "ajor": 1978,
      "ason": 1979,
      "Ġbuy": 1980,
      "Ġwindow": 1981,
      "Ġwithin": 1982,
      "Ġcomplet": 1983,
      "Ġfair": 1984,
      "Ġworry": 1985,
      "ĠAd": 1986,
      "Ġcells": 1987,
      "Ġgetting": 1988,
      "atural": 1989,
      "Ġansw": 1990,
      "ertain": 1991,
      "Ġfour": 1992,
      "Ġserv": 1993,
      "ĠPh": 1994,
      "Ġbow": 1995,
      "Ġinclude": 1996,
      "ological": 1997,
      "Ġhot": 1998,
      "Ġperform": 1999,
      "oke": 2000,
      "ified": 2001,
      "Ġtired": 2002,
      "Ġdays": 2003,
      "ients": 2004,
      "Ġyummy": 2005,
      "hod": 2006,
      "Ġproject": 2007,
      "hor": 2008,
      "cer": 2009,
      "Ġheav": 2010,
      "Ġcla": 2011,
      "Ġpost": 2012,
      "eter": 2013,
      "bs": 2014,
      "Ġtable": 2015,
      "Ġbag": 2016,
      "crib": 2017,
      "oes": 2018,
      "ĠLe": 2019,
      "Ġperf": 2020,
      "Ġavail": 2021,
      "Ġstat": 2022,
      "Ġsnow": 2023,
      "Ġshouted": 2024,
      "ipp": 2025,
      "ption": 2026,
      "aced": 2027,
      "omp": 2028,
      "Ġwrong": 2029,
      "Ġsomeone": 2030,
      "co": 2031,
      "Ġsever": 2032,
      "angu": 2033,
      "At": 2034,
      ",âĢĿ": 2035,
      "ww": 2036,
      "Ġmum": 2037,
      "ured": 2038,
      "Ġtimes": 2039,
      "Ġwall": 2040,
      "not": 2041,
      "Ġmusic": 2042,
      "Ġlady": 2043,
      "sh": 2044,
      "ĠCol": 2045,
      "Ġelse": 2046,
      "Ġswim": 2047,
      "iness": 2048,
      "lex": 2049,
      "Ġblocks": 2050,
      "Ġproblem": 2051,
      "Don": 2052,
      "ĠSarah": 2053,
      "Ġ[": 2054,
      "Ġorder": 2055,
      "ĠNow": 2056,
      "ĠStates": 2057,
      "Ġreturn": 2058,
      "Ġsocial": 2059,
      "Ġhole": 2060,
      "Ġdiff": 2061,
      "Ġoccur": 2062,
      "err": 2063,
      "Ġbrought": 2064,
      "ential": 2065,
      "att": 2066,
      "Ġcountry": 2067,
      "Ġproduct": 2068,
      "ours": 2069,
      "Ġfunny": 2070,
      "Ġprovide": 2071,
      "Ġvisit": 2072,
      "Ġrad": 2073,
      "Ġcand": 2074,
      "icult": 2075,
      "Ġident": 2076,
      "Ġcost": 2077,
      "Ġdelic": 2078,
      "Ġfloor": 2079,
      "Ġcast": 2080,
      "une": 2081,
      "Ġcarefully": 2082,
      "Ġcars": 2083,
      "Ġrememb": 2084,
      "...": 2085,
      "uggest": 2086,
      "ĠNational": 2087,
      "Ġmeans": 2088,
      "Ġlesson": 2089,
      "ises": 2090,
      "ĠEng": 2091,
      "ĠFr": 2092,
      "irth": 2093,
      "Ġview": 2094,
      "Ġtow": 2095,
      "Ġcried": 2096,
      "Ġlim": 2097,
      "ĠSh": 2098,
      "ively": 2099,
      "Ġsurf": 2100,
      "Ġpos": 2101,
      "ality": 2102,
      "12": 2103,
      "sel": 2104,
      "Ġplease": 2105,
      "ention": 2106,
      "Ġwaved": 2107,
      "iding": 2108,
      "Ġhear": 2109,
      "aged": 2110,
      "Ġmouse": 2111,
      "ĠGod": 2112,
      "ored": 2113,
      "Ġjob": 2114,
      "Ġmen": 2115,
      "Wow": 2116,
      "ills": 2117,
      "ability": 2118,
      "Ġopp": 2119,
      "Ġmajor": 2120,
      "Ġask": 2121,
      "Ġthough": 2122,
      "port": 2123,
      "Ġhistory": 2124,
      "Ġparticular": 2125,
      "Ġcurrent": 2126,
      "ĠJoe": 2127,
      "ering": 2128,
      "Ġsurprise": 2129,
      "Ġtall": 2130,
      "ppy": 2131,
      "aken": 2132,
      "arr": 2133,
      "Ġprof": 2134,
      "Ġsuggest": 2135,
      "Ġlab": 2136,
      "cl": 2137,
      "Ġtown": 2138,
      "Ġhat": 2139,
      "Ġleaves": 2140,
      "Ġsince": 2141,
      "though": 2142,
      "Ġbunny": 2143,
      "From": 2144,
      "Mommy": 2145,
      "Ġseveral": 2146,
      "Ġfil": 2147,
      "Ġet": 2148,
      "Ġfight": 2149,
      "Ġexam": 2150,
      "John": 2151,
      "'ll": 2152,
      "Ġproper": 2153,
      "Ġfrog": 2154,
      "ences": 2155,
      "ĠBe": 2156,
      "ude": 2157,
      "Ġinvol": 2158,
      "Ġlocal": 2159,
      "Ġavailable": 2160,
      "fort": 2161,
      "ĠHowever": 2162,
      "aisy": 2163,
      "Ġobs": 2164,
      "Ġ17": 2165,
      "Ġrece": 2166,
      "Ġadm": 2167,
      "ik": 2168,
      "ones": 2169,
      "Ġtrying": 2170,
      "ison": 2171,
      "aff": 2172,
      "Ġwin": 2173,
      "orning": 2174,
      "Ġremembered": 2175,
      "Ġlaugh": 2176,
      "atic": 2177,
      "Ġindivid": 2178,
      "Ġtreatment": 2179,
      "Timmy": 2180,
      "ither": 2181,
      "Ġmiss": 2182,
      "reen": 2183,
      "ument": 2184,
      "Ġdev": 2185,
      "Ġcomput": 2186,
      "Ġwished": 2187,
      "aps": 2188,
      "ĠChrist": 2189,
      "Ġrecord": 2190,
      "ĠCent": 2191,
      "Ġfollowing": 2192,
      "Ġbutterfly": 2193,
      "Ġmot": 2194,
      "Ġclear": 2195,
      "ĠTr": 2196,
      "Ġcult": 2197,
      "unch": 2198,
      "par": 2199,
      "St": 2200,
      "Ġnet": 2201,
      "icle": 2202,
      "Ġur": 2203,
      "Ġalone": 2204,
      "Ġrisk": 2205,
      "Ġturned": 2206,
      "ects": 2207,
      "Ġsong": 2208,
      "ify": 2209,
      "Ġhappily": 2210,
      "18": 2211,
      "Ġsea": 2212,
      "Ġfinished": 2213,
      "Ġmorning": 2214,
      "Ġenjoyed": 2215,
      "idence": 2216,
      "Ġarrived": 2217,
      "ĠDe": 2218,
      "itten": 2219,
      "Ġstruct": 2220,
      "Ġbar": 2221,
      "Ġgone": 2222,
      "Ġherself": 2223,
      "ably": 2224,
      "Ġcomb": 2225,
      "ining": 2226,
      "Ġlay": 2227,
      "Ġhopped": 2228,
      "most": 2229,
      "ĠQ": 2230,
      "resent": 2231,
      "Ġpossible": 2232,
      "Ġline": 2233,
      "ĠMed": 2234,
      "ĠTo": 2235,
      "Ġaddition": 2236,
      "Ġspr": 2237,
      "olution": 2238,
      "pe": 2239,
      "orts": 2240,
      "Ġevent": 2241,
      "Ġcolors": 2242,
      "Ġlonger": 2243,
      "Ġareas": 2244,
      "Ġeverything": 2245,
      "Ġswing": 2246,
      "Ġcase": 2247,
      "Ġkey": 2248,
      "Ġfinally": 2249,
      "Ġamong": 2250,
      "ello": 2251,
      "ternational": 2252,
      "Ġdoctor": 2253,
      "ĠOr": 2254,
      "Ġfarm": 2255,
      "Ġmoment": 2256,
      "Ġabove": 2257,
      "ift": 2258,
      "Ġbaby": 2259,
      "Ġfilled": 2260,
      "Ġsurprised": 2261,
      "Ġgiven": 2262,
      "ware": 2263,
      "Ġshort": 2264,
      "view": 2265,
      "Ġtalk": 2266,
      "ney": 2267,
      "ĠSome": 2268,
      "ration": 2269,
      "ĠEx": 2270,
      "15": 2271,
      "Ġperfect": 2272,
      "Ġdanger": 2273,
      "eddy": 2274,
      "alf": 2275,
      "ĠEd": 2276,
      "Ġbug": 2277,
      "ĠAf": 2278,
      "ĠBenny": 2279,
      "Ġmethod": 2280,
      "lish": 2281,
      "ears": 2282,
      "Ġpul": 2283,
      "Ġ198": 2284,
      "pecially": 2285,
      "Ġlangu": 2286,
      "Ġbring": 2287,
      "gg": 2288,
      "Ġpet": 2289,
      "Ġ12": 2290,
      "Ġwar": 2291,
      "Ġinfl": 2292,
      "Ġplants": 2293,
      "Ġjour": 2294,
      "ogn": 2295,
      "Ġclot": 2296,
      "Ġtail": 2297,
      "Ġbroken": 2298,
      "Ġtowards": 2299,
      "Ġwonderful": 2300,
      "Ġtight": 2301,
      "Ġfriendly": 2302,
      "Ġmeet": 2303,
      "key": 2304,
      "There": 2305,
      "Ġstep": 2306,
      "over": 2307,
      "Ġwet": 2308,
      "utes": 2309,
      "Ġagreed": 2310,
      "Ġprevent": 2311,
      "ĠPl": 2312,
      "Ġcertain": 2313,
      "Ġperiod": 2314,
      "Sam": 2315,
      "Ġbelieve": 2316,
      "selves": 2317,
      "uit": 2318,
      "ley": 2319,
      "oid": 2320,
      "urop": 2321,
      "Hello": 2322,
      "nal": 2323,
      "Ġnorm": 2324,
      "Ġanimal": 2325,
      "Ġproblems": 2326,
      "Ġanal": 2327,
      "ĠâĢĶ": 2328,
      "enn": 2329,
      "ived": 2330,
      "Ġlikes": 2331,
      "Ġspecific": 2332,
      "Ġbott": 2333,
      "ental": 2334,
      "Ġlearning": 2335,
      "agon": 2336,
      "ming": 2337,
      "ĠSally": 2338,
      "Ġcentury": 2339,
      "Ġnon": 2340,
      "umb": 2341,
      "Ġparty": 2342,
      "200": 2343,
      "Ġtaking": 2344,
      "erc": 2345,
      "Ġbirth": 2346,
      "etic": 2347,
      "Ġleave": 2348,
      "Ġlate": 2349,
      "vious": 2350,
      "Ġwants": 2351,
      "Ġpictures": 2352,
      "11": 2353,
      "Ġ0": 2354,
      "Ġcause": 2355,
      "Ġhill": 2356,
      "Ġdream": 2357,
      "ĠDr": 2358,
      "oms": 2359,
      "acy": 2360,
      "Ġbi": 2361,
      "Ġthank": 2362,
      "come": 2363,
      "ots": 2364,
      "Ġmem": 2365,
      "Ġsaf": 2366,
      "Ġenc": 2367,
      "Ġwon": 2368,
      "Ġwhole": 2369,
      "ĠWith": 2370,
      "Ġforgot": 2371,
      "set": 2372,
      "asing": 2373,
      "Ġcancer": 2374,
      "ances": 2375,
      "Ġsal": 2376,
      "ese": 2377,
      "Ġdelicious": 2378,
      "Ġbased": 2379,
      "ilar": 2380,
      "Ġaccess": 2381,
      "ples": 2382,
      "Ġtool": 2383,
      "Ġcirc": 2384,
      "epend": 2385,
      "Ġspl": 2386,
      "obal": 2387,
      "Ġespecially": 2388,
      "oint": 2389,
      "Ġmillion": 2390,
      "Ġmind": 2391,
      "Then": 2392,
      "ule": 2393,
      "work": 2394,
      "ilt": 2395,
      "Ġyes": 2396,
      "embers": 2397,
      "Ġsou": 2398,
      "Ġnatural": 2399,
      "Ġmonth": 2400,
      "idge": 2401,
      "Ġprotect": 2402,
      "Ġmedic": 2403,
      "ĠWor": 2404,
      "bo": 2405,
      "mat": 2406,
      "Ġtaken": 2407,
      "ubb": 2408,
      "Ġ$": 2409,
      "Ġwild": 2410,
      "Ġ16": 2411,
      "If": 2412,
      "Ġsail": 2413,
      "af": 2414,
      "ĠEn": 2415,
      "urope": 2416,
      "Ġprop": 2417,
      "Ġworking": 2418,
      "ĠJew": 2419,
      "Ġdifficult": 2420,
      "Ġcomes": 2421,
      "ze": 2422,
      "ands": 2423,
      "Ġvol": 2424,
      "Ġroll": 2425,
      "Ġ.": 2426,
      "Ġresour": 2427,
      "Ġamazing": 2428,
      "Ġcorn": 2429,
      "Ġcloud": 2430,
      "ĠDaisy": 2431,
      "ĠAfric": 2432,
      "Ġauthor": 2433,
      "Ġinvest": 2434,
      "Jack": 2435,
      "Ġamount": 2436,
      "Ġsignific": 2437,
      "Ġneeds": 2438,
      "Ġcannot": 2439,
      "uary": 2440,
      "Ġreach": 2441,
      "Ġsmell": 2442,
      "ĠBrit": 2443,
      "Ġtemper": 2444,
      "Ġteam": 2445,
      "Ġage": 2446,
      "Ġriver": 2447,
      "Ġdinner": 2448,
      "Ġdanc": 2449,
      "Ġdepend": 2450,
      "ĠUS": 2451,
      "Ġheavy": 2452,
      "Ġcity": 2453,
      "Ġdest": 2454,
      "Ġleast": 2455,
      "ety": 2456,
      "Ġdescrib": 2457,
      "Ġbuilding": 2458,
      "Ġwasn": 2459,
      "ĠSy": 2460,
      "Ġdeath": 2461,
      "ready": 2462,
      "lement": 2463,
      "iant": 2464,
      "eth": 2465,
      "Ġpus": 2466,
      "Ġlion": 2467,
      "Ġindust": 2468,
      "Ġassoci": 2469,
      "Ġpath": 2470,
      "Ġoffic": 2471,
      "Wh": 2472,
      "Ġmoral": 2473,
      "Ġju": 2474,
      "uffy": 2475,
      "ique": 2476,
      "Ġdiv": 2477,
      "ows": 2478,
      "Ġ197": 2479,
      "sc": 2480,
      "ploy": 2481,
      "May": 2482,
      "Ġspace": 2483,
      "ĠBl": 2484,
      "Ġlevels": 2485,
      "Ġsurface": 2486,
      "Ġtrad": 2487,
      "oom": 2488,
      "Ġpopulation": 2489,
      "val": 2490,
      "uses": 2491,
      "Ġgrandma": 2492,
      "Ġpay": 2493,
      "Ġmembers": 2494,
      "Ġcastle": 2495,
      "tt": 2496,
      "Ġresearc": 2497,
      "Ġfront": 2498,
      "uture": 2499,
      "Ġscary": 2500,
      "Ġsite": 2501,
      "Ġmouth": 2502,
      "Ġce": 2503,
      "Ġgas": 2504,
      "ume": 2505,
      "son": 2506,
      "thern": 2507,
      "zz": 2508,
      "Ġlake": 2509,
      "ought": 2510,
      "Ġusually": 2511,
      "ĠGo": 2512,
      "Ġitself": 2513,
      "Ġhowever": 2514,
      "Ġbenef": 2515,
      "ony": 2516,
      "ĠSoc": 2517,
      "Ġpink": 2518,
      "Ġmix": 2519,
      "ĠWar": 2520,
      "itting": 2521,
      "eared": 2522,
      "pper": 2523,
      "Ġalready": 2524,
      "Ġself": 2525,
      "ĠSe": 2526,
      "ĠEurope": 2527,
      "Ġrace": 2528,
      "Ġremember": 2529,
      "30": 2530,
      "Ġdry": 2531,
      "Ġsecret": 2532,
      "Ġalmost": 2533,
      "acks": 2534,
      "ledge": 2535,
      "Ġfurther": 2536,
      "Ġill": 2537,
      "ĠLila": 2538,
      "Ġpolitical": 2539,
      "ucky": 2540,
      "Ġestab": 2541,
      "iddle": 2542,
      "His": 2543,
      "ĠGe": 2544,
      "Ġtype": 2545,
      "Ġbal": 2546,
      "Ġsystems": 2547,
      "Ġinstead": 2548,
      "ference": 2549,
      "Ġpieces": 2550,
      "Ġconn": 2551,
      "Ġpuppy": 2552,
      "ables": 2553,
      "Ġapplic": 2554,
      "Ġchem": 2555,
      "Ġhappen": 2556,
      "ighb": 2557,
      "Ġpatient": 2558,
      "Ġstayed": 2559,
      "Ġlive": 2560,
      "Ġcases": 2561,
      "Ġfive": 2562,
      "Ġmic": 2563,
      "Ġdiscuss": 2564,
      "ators": 2565,
      "Ġclothes": 2566,
      "Ġstrange": 2567,
      "Ġrepresent": 2568,
      "Ġ--": 2569,
      "Ġcookies": 2570,
      "ery": 2571,
      "Ġexist": 2572,
      "Ġcountries": 2573,
      "Ġshared": 2574,
      "ĠNorth": 2575,
      "ĠAb": 2576,
      "Ġcream": 2577,
      "atory": 2578,
      "Ġphot": 2579,
      "Ġdig": 2580,
      "Ġworks": 2581,
      "Ġtakes": 2582,
      "Ġrespect": 2583,
      "Ġhungry": 2584,
      "por": 2585,
      "ĠMaybe": 2586,
      "50": 2587,
      "Al": 2588,
      "Ġmult": 2589,
      "cean": 2590,
      "Ġbegin": 2591,
      "ites": 2592,
      "Ġdam": 2593,
      "Ġbeach": 2594,
      "Ġonce": 2595,
      "ules": 2596,
      "NA": 2597,
      "Ġ14": 2598,
      "ĠNe": 2599,
      "Ġskin": 2600,
      "Ġquestion": 2601,
      "Ġhelping": 2602,
      "Ġtechnology": 2603,
      "Ġlanguage": 2604,
      "Ġneighb": 2605,
      "Ġcreate": 2606,
      "struct": 2607,
      "Ġeating": 2608,
      "ĠYork": 2609,
      "Ġlikely": 2610,
      "Ġarg": 2611,
      "Ġgeneral": 2612,
      "ges": 2613,
      "Ġslowly": 2614,
      "Ġlistened": 2615,
      "Ġ30": 2616,
      "Ġchanges": 2617,
      "Ġdangerous": 2618,
      "for": 2619,
      "Ġways": 2620,
      "Ġhalf": 2621,
      "Ġthemselves": 2622,
      "Ġrespons": 2623,
      "Ġcommunity": 2624,
      "irrel": 2625,
      "Ġcarry": 2626,
      "Ġresults": 2627,
      "Ġsent": 2628,
      "Ġsuff": 2629,
      "iation": 2630,
      "Ġfaster": 2631,
      "Ġcup": 2632,
      "Ġpretend": 2633,
      "agement": 2634,
      "Ġclimbed": 2635,
      "Ġoil": 2636,
      "Ġfig": 2637,
      "Ġhide": 2638,
      "Ġvill": 2639,
      "ĠGen": 2640,
      "earch": 2641,
      "ensive": 2642,
      "Ġnecess": 2643,
      "ĠBilly": 2644,
      "Ġfoc": 2645,
      "Ġflying": 2646,
      "Ġjoin": 2647,
      "And": 2648,
      "ĠMr": 2649,
      "Ġride": 2650,
      "uel": 2651,
      "ĠEarth": 2652,
      "Ġsearch": 2653,
      "Ġdisapp": 2654,
      "Ġquestions": 2655,
      "Ġowner": 2656,
      "omes": 2657,
      "Ġtext": 2658,
      "irty": 2659,
      "Ġking": 2660,
      "Ġimag": 2661,
      "ĠMar": 2662,
      "Ġmatter": 2663,
      "Ġsimilar": 2664,
      "agn": 2665,
      "Ġspark": 2666,
      "ĠJen": 2667,
      "bit": 2668,
      "ishing": 2669,
      "Ġjoy": 2670,
      "Ġ196": 2671,
      "pping": 2672,
      "oose": 2673,
      "Ġdaddy": 2674,
      "Ġconditions": 2675,
      "Ġsquirrel": 2676,
      "How": 2677,
      "Ġsum": 2678,
      "Ġfeet": 2679,
      "Ġeither": 2680,
      "Ġnews": 2681,
      "ler": 2682,
      "Ġbigger": 2683,
      "ĠRep": 2684,
      "--": 2685,
      "ires": 2686,
      "Ġfuture": 2687,
      "amin": 2688,
      "ĠPe": 2689,
      "Ġbehav": 2690,
      "la": 2691,
      "Ġegg": 2692,
      "Ġrights": 2693,
      "Ġfre": 2694,
      "13": 2695,
      "Ġfac": 2696,
      "Ġclosed": 2697,
      "Ġwear": 2698,
      "ression": 2699,
      "Ġshows": 2700,
      "Ġpulled": 2701,
      "Ġlower": 2702,
      "Ġann": 2703,
      "Ġpatients": 2704,
      "Ġtrue": 2705,
      "Ġcard": 2706,
      "Ġdue": 2707,
      "Ġdance": 2708,
      "ication": 2709,
      "ĠMary": 2710,
      "Ġroad": 2711,
      "Ġconsider": 2712,
      "Ġamazed": 2713,
      "ivil": 2714,
      "Ġstudies": 2715,
      "Ġhy": 2716,
      "ressed": 2717,
      "Ġsignificant": 2718,
      "Ġwel": 2719,
      "Ġwoods": 2720,
      "Ġeducation": 2721,
      "bers": 2722,
      "light": 2723,
      "raft": 2724,
      "Ġsmiles": 2725,
      "Ġcop": 2726,
      "ps": 2727,
      "Ġow": 2728,
      "Ġfox": 2729,
      "Ġpull": 2730,
      "ĠGerm": 2731,
      "Ġruns": 2732,
      "Ġincrease": 2733,
      "atter": 2734,
      "Ġmeasure": 2735,
      "Ġmodern": 2736,
      "isc": 2737,
      "ilities": 2738,
      "ĠWorld": 2739,
      "Ġprin": 2740,
      "ancy": 2741,
      "ĠGrand": 2742,
      "Ġspread": 2743,
      "ept": 2744,
      "Ġblank": 2745,
      "):": 2746,
      "itch": 2747,
      "Ġsilly": 2748,
      "Ġwrite": 2749,
      "Ġteacher": 2750,
      "pect": 2751,
      "Ġsepar": 2752,
      "Ġrecogn": 2753,
      "Ġgames": 2754,
      "cient": 2755,
      "ask": 2756,
      "Ġasks": 2757,
      "ĠX": 2758,
      "Ġmach": 2759,
      "Ġimpact": 2760,
      "ĠPr": 2761,
      "Ġwaited": 2762,
      "Ġprofess": 2763,
      "Ġhours": 2764,
      "Ġtrav": 2765,
      "Ġpaint": 2766,
      "Ġeffects": 2767,
      "Ġtrain": 2768,
      "Ġbrain": 2769,
      "Ġfeed": 2770,
      "iol": 2771,
      "apes": 2772,
      "Ġbelow": 2773,
      "Oh": 2774,
      "Ġwide": 2775,
      "Ġspot": 2776,
      "Ġcomputer": 2777,
      "aur": 2778,
      "gen": 2779,
      "ales": 2780,
      "Ġstar": 2781,
      "17": 2782,
      "Why": 2783,
      "Ġdoc": 2784,
      "ĠâĢĺ": 2785,
      "Ġresearchers": 2786,
      "ĠNo": 2787,
      "Ġaccept": 2788,
      "Ġbelong": 2789,
      "rie": 2790,
      "Ġnothing": 2791,
      "Ġhor": 2792,
      "anch": 2793,
      "Ġnature": 2794,
      "iam": 2795,
      "ublic": 2796,
      "Ġmoved": 2797,
      "Ġhealthy": 2798,
      "Ġprob": 2799,
      "Ġcharacter": 2800,
      "Ġprim": 2801,
      "Maybe": 2802,
      "Ġengine": 2803,
      "ivity": 2804,
      "overed": 2805,
      "Ġsize": 2806,
      "Ġfunction": 2807,
      "Ġsingle": 2808,
      ".)": 2809,
      "Ġpromised": 2810,
      "dom": 2811,
      "Ġfund": 2812,
      "AS": 2813,
      "Ġscience": 2814,
      "Ġeverywhere": 2815,
      "Ġgroups": 2816,
      "Ġdeveloped": 2817,
      "inist": 2818,
      "Ġfarmer": 2819,
      "Ġstri": 2820,
      "urch": 2821,
      "gest": 2822,
      "Ġfoot": 2823,
      "Ġsex": 2824,
      "Ġteddy": 2825,
      "ograph": 2826,
      "ĠBy": 2827,
      "Ġpiece": 2828,
      "Ġbrown": 2829,
      "ode": 2830,
      "Ġcreated": 2831,
      "Ġbuilt": 2832,
      "ĠAmerica": 2833,
      "Ġvarious": 2834,
      "artment": 2835,
      "For": 2836,
      "aid": 2837,
      "inary": 2838,
      "Ġmount": 2839,
      "ief": 2840,
      "Ġknowledge": 2841,
      "Ġcamp": 2842,
      "Ġdro": 2843,
      "cy": 2844,
      "cri": 2845,
      "Ġtrou": 2846,
      "Ġyet": 2847,
      "ĠCal": 2848,
      "uly": 2849,
      "ann": 2850,
      "ĠAct": 2851,
      "Ġ2012": 2852,
      "Ġsubject": 2853,
      "Ġmedical": 2854,
      "augh": 2855,
      "Ġmeas": 2856,
      "Ġcontent": 2857,
      "ervation": 2858,
      "ches": 2859,
      "ĠAss": 2860,
      "Ġmarket": 2861,
      "ederal": 2862,
      "Ġrather": 2863,
      "Ġnormal": 2864,
      "Ġmass": 2865,
      "Ġpressure": 2866,
      "Ġpractice": 2867,
      "Ġnut": 2868,
      "ĠJim": 2869,
      "Ġworried": 2870,
      "Ġthinks": 2871,
      "orrow": 2872,
      "iction": 2873,
      "Ġcandy": 2874,
      "Ġap": 2875,
      "ucks": 2876,
      "Ġevidence": 2877,
      "Ġsym": 2878,
      "Ġsister": 2879,
      "Ġstories": 2880,
      "Ġplaces": 2881,
      "istic": 2882,
      "Ġsmart": 2883,
      "ibility": 2884,
      "Ġfail": 2885,
      "Ġexperience": 2886,
      "sych": 2887,
      "cop": 2888,
      "ĠCar": 2889,
      "Ġrelations": 2890,
      "Ġloss": 2891,
      "Ġround": 2892,
      "Ġnational": 2893,
      "ĠSouth": 2894,
      "bon": 2895,
      "Ġrequire": 2896,
      "ground": 2897,
      "ipped": 2898,
      "Ġduck": 2899,
      "ĠAmy": 2900,
      "Ġinflu": 2901,
      "eal": 2902,
      "Ġexplained": 2903,
      "Ġsuper": 2904,
      "Max": 2905,
      "org": 2906,
      "Ġneg": 2907,
      "Ġwhether": 2908,
      "igg": 2909,
      "ims": 2910,
      "Ġstars": 2911,
      "Ġquiet": 2912,
      "Ġpage": 2913,
      "Ġmodel": 2914,
      "Ġband": 2915,
      "Ġcou": 2916,
      "Ġindepend": 2917,
      "echan": 2918,
      "Ġearth": 2919,
      "14": 2920,
      "itted": 2921,
      "reet": 2922,
      "Ġimm": 2923,
      "//": 2924,
      "imed": 2925,
      "ĠHealth": 2926,
      "Ġindic": 2927,
      "Ġcoll": 2928,
      "Ġdrug": 2929,
      "Ġpack": 2930,
      "Ġpeace": 2931,
      "ateful": 2932,
      "irr": 2933,
      "Ġfamil": 2934,
      "cks": 2935,
      "action": 2936,
      "airs": 2937,
      "Ch": 2938,
      "roll": 2939,
      "ody": 2940,
      "Ġled": 2941,
      "Ġoriginal": 2942,
      "ana": 2943,
      "Ġsett": 2944,
      "stitute": 2945,
      "Ġess": 2946,
      "ĠAust": 2947,
      "Ġprote": 2948,
      "ober": 2949,
      "reg": 2950,
      "Ġopt": 2951,
      "acked": 2952,
      "Ġreason": 2953,
      "Ġgives": 2954,
      "Ġinteresting": 2955,
      "Ġparts": 2956,
      "Ġpoor": 2957,
      "Ġpublished": 2958,
      "Ġbroke": 2959,
      "Ġmagical": 2960,
      "Ġvalue": 2961,
      "Ġer": 2962,
      "Ġtiny": 2963,
      "ysis": 2964,
      "Ġparticip": 2965,
      "Ġrob": 2966,
      "Ġemb": 2967,
      "nam": 2968,
      "Ã©": 2969,
      "Ġappear": 2970,
      "Ġeconomic": 2971,
      "Ġhit": 2972,
      "ĠTommy": 2973,
      "Ġwoman": 2974,
      "Ġphysical": 2975,
      "Ġgrateful": 2976,
      "ging": 2977,
      "Ġbreat": 2978,
      "Ġcover": 2979,
      "Ġemploy": 2980,
      "Ġaccording": 2981,
      "Ġcross": 2982,
      "Ġhope": 2983,
      "Ġresources": 2984,
      "Ġpig": 2985,
      "Ġintrod": 2986,
      "au": 2987,
      "ying": 2988,
      "Ġsens": 2989,
      "Ġ13": 2990,
      "osis": 2991,
      "ĠII": 2992,
      "Ġdolls": 2993,
      "Ġbowl": 2994,
      "icient": 2995,
      "Ġactivity": 2996,
      "ae": 2997,
      "Ġprint": 2998,
      "Ġhon": 2999,
      "Ġhistor": 3000,
      "Ġhuge": 3001,
      "Ġimprove": 3002,
      "struction": 3003,
      "medi": 3004,
      "Ġweek": 3005,
      "ĠDep": 3006,
      "://": 3007,
      "Ġgrowth": 3008,
      "ball": 3009,
      "Ġarm": 3010,
      "hib": 3011,
      "ru": 3012,
      "Ġport": 3013,
      "Ġstates": 3014,
      "ateg": 3015,
      "amm": 3016,
      "Ġarms": 3017,
      "Ġactually": 3018,
      "Ġballoon": 3019,
      "Ġglobal": 3020,
      "Ġ2010": 3021,
      "Ġkiss": 3022,
      "ius": 3023,
      "ribut": 3024,
      "ER": 3025,
      "Ġbike": 3026,
      "iment": 3027,
      "Ġpattern": 3028,
      "ashing": 3029,
      "Ġra": 3030,
      "Ġentire": 3031,
      "Ġsource": 3032,
      "apt": 3033,
      "Ġaccount": 3034,
      "Ġanswer": 3035,
      "eds": 3036,
      "erve": 3037,
      "lebr": 3038,
      "aving": 3039,
      "Ġabs": 3040,
      "Ġproduction": 3041,
      "uation": 3042,
      "Ġsuccessful": 3043,
      "ĠHist": 3044,
      "Ġrange": 3045,
      "Ġmilk": 3046,
      "Ġpen": 3047,
      "Ġrele": 3048,
      "ĠJill": 3049,
      "16": 3050,
      "de": 3051,
      "Ġlog": 3052,
      "ocol": 3053,
      "Ġprep": 3054,
      "Ġnumbers": 3055,
      "Ġord": 3056,
      "Ġbath": 3057,
      "Ġwouldn": 3058,
      "Ġregion": 3059,
      "Ġcrying": 3060,
      "Ġincreased": 3061,
      "ulations": 3062,
      "Ġtower": 3063,
      "Ġsix": 3064,
      "Ġmechan": 3065,
      "Ġdirty": 3066,
      "ĠDec": 3067,
      "ustr": 3068,
      "Ġactivities": 3069,
      "ext": 3070,
      "Ġ|": 3071,
      "ĠAm": 3072,
      "chie": 3073,
      "aughter": 3074,
      "sidered": 3075,
      "OK": 3076,
      "oph": 3077,
      "Ġmole": 3078,
      "Ġcolorful": 3079,
      "Ġprincess": 3080,
      "ips": 3081,
      "Ġinit": 3082,
      "Ġchall": 3083,
      "Ġrole": 3084,
      "Ġcarrot": 3085,
      "Ġclimate": 3086,
      "kn": 3087,
      "ĠState": 3088,
      "Ġstepped": 3089,
      "Ġcoun": 3090,
      "ocked": 3091,
      "Ġanyone": 3092,
      "Ġveget": 3093,
      "Okay": 3094,
      "ĠPres": 3095,
      "arp": 3096,
      "Ġbill": 3097,
      "Ġbuck": 3098,
      "Ġfat": 3099,
      "ortun": 3100,
      "Ġrecent": 3101,
      "Ġthrow": 3102,
      "Ġseemed": 3103,
      "Ġadded": 3104,
      "ĠEnglish": 3105,
      "ket": 3106,
      "ospital": 3107,
      "Ġneck": 3108,
      "atures": 3109,
      "ĠIm": 3110,
      "Ġconsidered": 3111,
      "Ġshop": 3112,
      "Ġchemical": 3113,
      "ising": 3114,
      "ĠMolly": 3115,
      "Ġdropped": 3116,
      "Hi": 3117,
      "Ġyard": 3118,
      "urity": 3119,
      "Ġminutes": 3120,
      "yr": 3121,
      "Ġsick": 3122,
      "Ġforget": 3123,
      "Ġeasy": 3124,
      "Ġscientists": 3125,
      "ĠComp": 3126,
      "Ġeye": 3127,
      "Ġban": 3128,
      "Ġpred": 3129,
      "Ġshoes": 3130,
      "Ġnearby": 3131,
      "Ġdrive": 3132,
      "Ġcelebr": 3133,
      "Ġocean": 3134,
      "Ġcomplex": 3135,
      "Ġgent": 3136,
      "vere": 3137,
      "ification": 3138,
      "Ġdragon": 3139,
      "ĠResearch": 3140,
      "fer": 3141,
      "ene": 3142,
      "stant": 3143,
      "Ġindividual": 3144,
      "Ġburn": 3145,
      "Ġserious": 3146,
      "ival": 3147,
      "Ġtot": 3148,
      "Ġfa": 3149,
      "Ġrelig": 3150,
      "Ġenvironmental": 3151,
      "Ġrocks": 3152,
      "Ġrequired": 3153,
      "Ġstructure": 3154,
      "apan": 3155,
      "Ġble": 3156,
      "Ġfit": 3157,
      "Ġshel": 3158,
      "Ġaccident": 3159,
      "Ġconsum": 3160,
      "Ġturns": 3161,
      "estern": 3162,
      "Ġstuck": 3163,
      "Ġonto": 3164,
      "ĠDav": 3165,
      "board": 3166,
      "Ġthrew": 3167,
      "Ġgoes": 3168,
      "ptoms": 3169,
      "Ġbusiness": 3170,
      "Sure": 3171,
      "rect": 3172,
      "itary": 3173,
      "ĠWill": 3174,
      "Ġtypes": 3175,
      "Ġ100": 3176,
      "Ġ25": 3177,
      "Ġperm": 3178,
      "Ġprovides": 3179,
      "che": 3180,
      "Ġwish": 3181,
      "erved": 3182,
      "Ġlunch": 3183,
      "Ġ11": 3184,
      "Ġviol": 3185,
      "ucle": 3186,
      "Ġcompet": 3187,
      "ĠWhile": 3188,
      "Ġtemperature": 3189,
      "Ġpriv": 3190,
      "Ġfrequ": 3191,
      "Ġsuddenly": 3192,
      "Ġcaught": 3193,
      "Ġnest": 3194,
      "Ġbranch": 3195,
      "Ġpopular": 3196,
      "Ġsounds": 3197,
      "aul": 3198,
      "Ġcray": 3199,
      "Ġarticle": 3200,
      "Ġpock": 3201,
      "Ġproducts": 3202,
      "Ġblanket": 3203,
      "go": 3204,
      "ades": 3205,
      "Ġweight": 3206,
      "Ġ/": 3207,
      "Ġtwins": 3208,
      "Ġign": 3209,
      "Ġcompl": 3210,
      "Ġunderstanding": 3211,
      "Ġhoped": 3212,
      "Ġeleph": 3213,
      "Ġmaterials": 3214,
      "iple": 3215,
      "Ġnose": 3216,
      "Ġ50": 3217,
      "Ġrecomm": 3218,
      "gress": 3219,
      "Ġemer": 3220,
      "oles": 3221,
      "order": 3222,
      "hood": 3223,
      "Ġachie": 3224,
      "egr": 3225,
      "Ġstorm": 3226,
      "Ġjud": 3227,
      "Ġprovided": 3228,
      "Ġdetail": 3229,
      "Ġeventually": 3230,
      "Ġconcept": 3231,
      "Ġadult": 3232,
      "stitution": 3233,
      "To": 3234,
      "vention": 3235,
      "Ġmagn": 3236,
      "Ġ2011": 3237,
      "Ġpushed": 3238,
      "Ġgentle": 3239,
      "ĠRet": 3240,
      "Ġorange": 3241,
      "Ġissues": 3242,
      "ey": 3243,
      "Ġvers": 3244,
      "Ġrelated": 3245,
      "Ġmist": 3246,
      "wh": 3247,
      "Ġbite": 3248,
      "Ġfing": 3249,
      "Ġdom": 3250,
      "Ġexerc": 3251,
      "Ġsmo": 3252,
      "useum": 3253,
      "ĠBritish": 3254,
      "Ġcy": 3255,
      "ĠCont": 3256,
      "itional": 3257,
      "Ġpotential": 3258,
      "Ġdaughter": 3259,
      "empt": 3260,
      "hel": 3261,
      "Ġlin": 3262,
      "ecause": 3263,
      "vely": 3264,
      "ĠSec": 3265,
      "ending": 3266,
      "Ġnation": 3267,
      "Ġspir": 3268,
      "Ġvide": 3269,
      "uals": 3270,
      "Ġones": 3271,
      "Ġmagic": 3272,
      "Ġdrink": 3273,
      "Ġver": 3274,
      "Ġsil": 3275,
      "Ġwings": 3276,
      "ĠSm": 3277,
      "Ġnap": 3278,
      "resh": 3279,
      "atives": 3280,
      "aches": 3281,
      "ceed": 3282,
      "Ġspent": 3283,
      "izing": 3284,
      "ĠScience": 3285,
      "book": 3286,
      "Ġmail": 3287,
      "Ġselect": 3288,
      "Ġsense": 3289,
      "itation": 3290,
      "Ġtravel": 3291,
      "asc": 3292,
      "Ġmonster": 3293,
      "Ġconduct": 3294,
      "ronic": 3295,
      "ym": 3296,
      "Ġmiddle": 3297,
      "oday": 3298,
      "Ġaddress": 3299,
      "ĠCenter": 3300,
      "rial": 3301,
      "Ġcapt": 3302,
      "Ġregular": 3303,
      "ĠAc": 3304,
      "iff": 3305,
      "Ġupset": 3306,
      "Ġcomfort": 3307,
      "Ġ2008": 3308,
      "Ġconcern": 3309,
      "Ġlon": 3310,
      "Ġthreat": 3311,
      "ĠTheir": 3312,
      "Ġrare": 3313,
      "ĠChe": 3314,
      "Ġaction": 3315,
      "Do": 3316,
      "uth": 3317,
      "itor": 3318,
      "Ġge": 3319,
      "ada": 3320,
      "sequ": 3321,
      "Ġprograms": 3322,
      "Finally": 3323,
      "ĠStud": 3324,
      "Ġlif": 3325,
      "urs": 3326,
      "Ġsimple": 3327,
      "Ġsold": 3328,
      "athe": 3329,
      "Ġep": 3330,
      "Ġtreasure": 3331,
      "Ġstandard": 3332,
      "abor": 3333,
      "ĠJapan": 3334,
      "Ġdiscovered": 3335,
      "Ġwelcome": 3336,
      "Ġmine": 3337,
      "Ġbasket": 3338,
      "Ġtraining": 3339,
      "Ġfeels": 3340,
      "astic": 3341,
      "Ġcontain": 3342,
      "Ġexploring": 3343,
      "ĠKing": 3344,
      "Ġpassed": 3345,
      "Ġgrowing": 3346,
      "Ġcomplete": 3347,
      "Ġsam": 3348,
      "ometimes": 3349,
      "Ġinvestig": 3350,
      "ID": 3351,
      "iable": 3352,
      "ager": 3353,
      "Ġwrote": 3354,
      "Ġreduce": 3355,
      "21": 3356,
      "vey": 3357,
      "Ġsurv": 3358,
      "omen": 3359,
      "cil": 3360,
      "Ġfather": 3361,
      "bow": 3362,
      "adem": 3363,
      "ĠCor": 3364,
      "ĠJan": 3365,
      "Ġresist": 3366,
      "Ġholding": 3367,
      "Ġestim": 3368,
      "ĠGu": 3369,
      "Ġcheck": 3370,
      "Ġforce": 3371,
      "Ġmonths": 3372,
      "pos": 3373,
      "Ġservice": 3374,
      "Ġlonely": 3375,
      "Ġdrove": 3376,
      "Ġsoil": 3377,
      "Ġvit": 3378,
      "yard": 3379,
      "Ġfile": 3380,
      "ocr": 3381,
      "Ġprinc": 3382,
      "Ġdesigned": 3383,
      "Ġfairy": 3384,
      "Ġswings": 3385,
      "Ġgreater": 3386,
      "Ġdetermined": 3387,
      "ections": 3388,
      "ray": 3389,
      "reamed": 3390,
      "Ġ2007": 3391,
      "Ġpowerful": 3392,
      "Ġclapped": 3393,
      "put": 3394,
      "ether": 3395,
      "elling": 3396,
      "ES": 3397,
      "Ġproduce": 3398,
      "Ġaf": 3399,
      "fact": 3400,
      "lies": 3401,
      "Ġtherap": 3402,
      "ĠEven": 3403,
      "Ġforward": 3404,
      "Ġancient": 3405,
      "ĠJust": 3406,
      "ĠFe": 3407,
      "Ġarch": 3408,
      "Ġstudent": 3409,
      "Ġfruit": 3410,
      "Ġcaused": 3411,
      "Ġtun": 3412,
      "Ġrate": 3413,
      "reng": 3414,
      "Ġwritten": 3415,
      "Ġnecessary": 3416,
      "ĠFluffy": 3417,
      "Of": 3418,
      "rim": 3419,
      "Ġrev": 3420,
      "Ġthroughout": 3421,
      "Ġdoesn": 3422,
      "Ġapple": 3423,
      "Ġopportun": 3424,
      "amb": 3425,
      "Ġsharp": 3426,
      "Ġchair": 3427,
      "Ġcheered": 3428,
      "Ġliter": 3429,
      "Ġregard": 3430,
      "Ġtools": 3431,
      "Ġowl": 3432,
      "Ġwise": 3433,
      "25": 3434,
      "Ġvillage": 3435,
      "Ġsymptoms": 3436,
      "Ġheat": 3437,
      "Ġdead": 3438,
      "Ġmaint": 3439,
      "head": 3440,
      "elly": 3441,
      "rench": 3442,
      "Ġrelationship": 3443,
      "Ġnoises": 3444,
      "Ġtax": 3445,
      "ĠCons": 3446,
      "Ġassociated": 3447,
      "ĠFinally": 3448,
      "ucing": 3449,
      "ĠInstitute": 3450,
      "Ġ194": 3451,
      "Ġreported": 3452,
      "Ġcarried": 3453,
      "Ġadventures": 3454,
      "iences": 3455,
      "Ġx": 3456,
      "Ġmeant": 3457,
      "nic": 3458,
      "Ġaver": 3459,
      "Ġharm": 3460,
      "Ġjourney": 3461,
      "ander": 3462,
      "Ġappeared": 3463,
      "Ġletter": 3464,
      "Ġinj": 3465,
      "Ġ2009": 3466,
      "Ġencour": 3467,
      "lt": 3468,
      "Ġcontact": 3469,
      "ĠEmma": 3470,
      "ply": 3471,
      "ĠMarch": 3472,
      "Ġmanagement": 3473,
      "Ġsoup": 3474,
      "Ġcit": 3475,
      "Ġreflect": 3476,
      "like": 3477,
      "Ġattention": 3478,
      "Ġsang": 3479,
      "Ġbee": 3480,
      "rieved": 3481,
      "Ġprobably": 3482,
      "Ġpocket": 3483,
      "Ġox": 3484,
      "Ġquite": 3485,
      "Ġcondition": 3486,
      "Ġgift": 3487,
      "Ġsave": 3488,
      "rict": 3489,
      "icles": 3490,
      "lege": 3491,
      "acc": 3492,
      "ĠCo": 3493,
      "usion": 3494,
      "Ġquality": 3495,
      "Ġuseful": 3496,
      "arian": 3497,
      "Ġwriting": 3498,
      "ccording": 3499,
      "Ġhtt": 3500,
      "ĠMan": 3501,
      "ĠRuss": 3502,
      "Ġability": 3503,
      "Ġdeg": 3504,
      "Ġprevious": 3505,
      "Ġflu": 3506,
      "Ġbusy": 3507,
      "Ġjuice": 3508,
      "Ġbul": 3509,
      "Ġstreet": 3510,
      "uments": 3511,
      "Ġsitting": 3512,
      "Ġfence": 3513,
      "ĠMy": 3514,
      "Ġsinging": 3515,
      "Ġissue": 3516,
      "Ġimage": 3517,
      "ĠInternational": 3518,
      "Ġswam": 3519,
      "Ġtotal": 3520,
      "ights": 3521,
      "Ġunique": 3522,
      "ĠDepartment": 3523,
      "Ġjar": 3524,
      "Ġcart": 3525,
      "Ġlives": 3526,
      "Ġens": 3527,
      "Ġuses": 3528,
      "oe": 3529,
      "ino": 3530,
      "itude": 3531,
      "ĠPol": 3532,
      "ternal": 3533,
      "ropri": 3534,
      "Ġfocus": 3535,
      "Now": 3536,
      "Ġwave": 3537,
      "Ġwee": 3538,
      "Ġdiet": 3539,
      "aries": 3540,
      "Ġbackyard": 3541,
      "Ġdistance": 3542,
      "Ġhttp": 3543,
      "Ġwarn": 3544,
      "Ġpan": 3545,
      "ĠPress": 3546,
      "raid": 3547,
      "Ġskills": 3548,
      "Ġmachine": 3549,
      "Ġcave": 3550,
      "Ġmedia": 3551,
      "Ġplane": 3552,
      "Ġshapes": 3553,
      "pril": 3554,
      "Mia": 3555,
      "za": 3556,
      "Ġforms": 3557,
      "Ġrelie": 3558,
      "onstr": 3559,
      "Ġang": 3560,
      "ĠRed": 3561,
      "Ġmotor": 3562,
      "Ġnucle": 3563,
      "Ġgold": 3564,
      "Ġstreng": 3565,
      "Ġpointed": 3566,
      "Ġdriver": 3567,
      "imately": 3568,
      "olf": 3569,
      "Ġfear": 3570,
      "ĠApp": 3571,
      "Ġdiagn": 3572,
      "Ġple": 3573,
      "Ġshown": 3574,
      "ĠDaddy": 3575,
      "amer": 3576,
      "Ġhelpful": 3577,
      "Ġsmaller": 3578,
      "Ġearl": 3579,
      "Ġterms": 3580,
      "Ġsupply": 3581,
      "Ġdocument": 3582,
      "Ġextre": 3583,
      "Ġdestro": 3584,
      "Ġago": 3585,
      "Ġrainbow": 3586,
      "ĠAustral": 3587,
      "ĠRetrieved": 3588,
      "haps": 3589,
      "Ġut": 3590,
      "ĠSee": 3591,
      "Ġnote": 3592,
      "ĠChina": 3593,
      "Lila": 3594,
      "based": 3595,
      "hol": 3596,
      "arily": 3597,
      "rences": 3598,
      "Ġmedicine": 3599,
      "ĠCalif": 3600,
      "Ġafraid": 3601,
      "Ġexciting": 3602,
      "Ġbench": 3603,
      "80": 3604,
      "Ġisland": 3605,
      "Ġspo": 3606,
      "Ġproduced": 3607,
      "Ġsources": 3608,
      "Ġapproach": 3609,
      "Ġsafety": 3610,
      "Ġtouc": 3611,
      "Ġnaught": 3612,
      "Ġprec": 3613,
      "ĠChar": 3614,
      "Ġscientific": 3615,
      "ĠPresident": 3616,
      "Ġhelps": 3617,
      "Ġhugs": 3618,
      "Ġphone": 3619,
      "Ġattract": 3620,
      "Be": 3621,
      "Ġreve": 3622,
      "Ġimmedi": 3623,
      "Ġreading": 3624,
      "Ġcontinue": 3625,
      "Ġmovement": 3626,
      "Ġswimming": 3627,
      "Ġinvolved": 3628,
      "Ġweak": 3629,
      "Ġattempt": 3630,
      "www": 3631,
      "ĠAfrican": 3632,
      "Ġbone": 3633,
      "oman": 3634,
      "Ġgoal": 3635,
      "Ġboard": 3636,
      "Ġforever": 3637,
      "199": 3638,
      "Ġbehavior": 3639,
      "IS": 3640,
      "ittens": 3641,
      "ĠWhy": 3642,
      "Ġspin": 3643,
      "Ġtrust": 3644,
      "Ġnaughty": 3645,
      "Ġtend": 3646,
      "Ġtele": 3647,
      "Ġpolice": 3648,
      "ped": 3649,
      "Ġconcent": 3650,
      "Ġanalysis": 3651,
      "ĠAug": 3652,
      "Ġcompany": 3653,
      "formation": 3654,
      "Ġincreasing": 3655,
      "Ġwatching": 3656,
      "pa": 3657,
      "Ġwoke": 3658,
      "utions": 3659,
      "Ġtrade": 3660,
      "AT": 3661,
      "Ġnor": 3662,
      "aging": 3663,
      "ĠWest": 3664,
      "Ġwhose": 3665,
      "Ġreturned": 3666,
      "het": 3667,
      "Ġsug": 3668,
      "orge": 3669,
      "ications": 3670,
      "icks": 3671,
      "Ġmyster": 3672,
      "Ġincluded": 3673,
      "Ġmoving": 3674,
      "Ġsimply": 3675,
      "Ġlabor": 3676,
      "Ġindustry": 3677,
      "Ġbread": 3678,
      "aling": 3679,
      "Ġgun": 3680,
      "een": 3681,
      "Ġevents": 3682,
      "Ġdeveloping": 3683,
      "idden": 3684,
      "gency": 3685,
      "alt": 3686,
      "undred": 3687,
      "otted": 3688,
      "Ġfold": 3689,
      "Ġoffice": 3690,
      "ornia": 3691,
      "Ġparticularly": 3692,
      "ĠQu": 3693,
      "ĠJewish": 3694,
      "Ġtheory": 3695,
      "Ġgra": 3696,
      "Ġimpro": 3697,
      "Ġposition": 3698,
      "Ġshook": 3699,
      "Ġpurple": 3700,
      ");": 3701,
      "Ġthird": 3702,
      "Ġgiant": 3703,
      "Ġ40": 3704,
      "Ġfigure": 3705,
      "Ġofficial": 3706,
      "Ġbought": 3707,
      "ĠSchool": 3708,
      "ĠJune": 3709,
      "Ġelephant": 3710,
      "Ġthous": 3711,
      "Ġcraw": 3712,
      "Ġworkers": 3713,
      "Ġmonkey": 3714,
      "ĠCount": 3715,
      "Ġteeth": 3716,
      "Ġseries": 3717,
      "Ġdemonstr": 3718,
      "Ġcivil": 3719,
      "Ġpoll": 3720,
      "Ġextra": 3721,
      "Ġmeaning": 3722,
      "kin": 3723,
      "ĠHar": 3724,
      "Ġeffective": 3725,
      "aser": 3726,
      "Ġstream": 3727,
      "Ġfactors": 3728,
      "Ġbasic": 3729,
      "AR": 3730,
      "ĠAnt": 3731,
      "Ġship": 3732,
      "Ġpuzz": 3733,
      "Ġestablished": 3734,
      "IN": 3735,
      "Ġbase": 3736,
      "ici": 3737,
      "ĠSu": 3738,
      "Ġreceived": 3739,
      "Ġtrouble": 3740,
      "ogether": 3741,
      "anced": 3742,
      "ashington": 3743,
      "Ġtub": 3744,
      "Ġhospital": 3745,
      "Ġinternational": 3746,
      "Ġeight": 3747,
      "Ġ24": 3748,
      "verse": 3749,
      "Ġwhist": 3750,
      "Ġpolicy": 3751,
      "Ġcourt": 3752,
      "Ġpromise": 3753,
      "Ġelectric": 3754,
      "overy": 3755,
      "Ġspeed": 3756,
      "Ġclouds": 3757,
      "Ġonline": 3758,
      "ĠMore": 3759,
      "Ġwondered": 3760,
      "Ġetc": 3761,
      "gn": 3762,
      "lied": 3763,
      "Ġhur": 3764,
      "adow": 3765,
      "ĠMin": 3766,
      "unk": 3767,
      "ems": 3768,
      "Ġseek": 3769,
      "Ġcarbon": 3770,
      "Ġnearly": 3771,
      "Ġtalking": 3772,
      "Ġbucket": 3773,
      "mber": 3774,
      "Ġfederal": 3775,
      "Ġgenerally": 3776,
      "Ġneighbor": 3777,
      "By": 3778,
      "Every": 3779,
      "Ġten": 3780,
      "Ġdrop": 3781,
      "Ġschools": 3782,
      "\",": 3783,
      "time": 3784,
      "onse": 3785,
      "Ġhorse": 3786,
      "ĠIS": 3787,
      "Ġrich": 3788,
      "Ġkill": 3789,
      "Ġteach": 3790,
      "ĠYour": 3791,
      "ai": 3792,
      "Ġincludes": 3793,
      "ribution": 3794,
      "My": 3795,
      "pro": 3796,
      "lying": 3797,
      "Ġcorner": 3798,
      "inking": 3799,
      "ĠJuly": 3800,
      "ĠRiver": 3801,
      "Ġservices": 3802,
      "Bob": 3803,
      "ĠÂ": 3804,
      "Ġpow": 3805,
      "Ġdeb": 3806,
      "ĠSoon": 3807,
      "Ġpsych": 3808,
      "Ġda": 3809,
      "ĠMus": 3810,
      "Ġplaced": 3811,
      "ĠPer": 3812,
      "osy": 3813,
      "Ġfuel": 3814,
      "Ġhous": 3815,
      "itty": 3816,
      "Ġspeak": 3817,
      "Later": 3818,
      "ners": 3819,
      "uits": 3820,
      "arched": 3821,
      "ĠPart": 3822,
      "Ġaverage": 3823,
      "Ġtouched": 3824,
      "ops": 3825,
      "Ġideas": 3826,
      "unt": 3827,
      "Ġpil": 3828,
      "Ġshell": 3829,
      "ĠDon": 3830,
      "ĠDes": 3831,
      "Ġmad": 3832,
      "Ġdou": 3833,
      "ĠVol": 3834,
      "known": 3835,
      "22": 3836,
      "wor": 3837,
      "inated": 3838,
      "atch": 3839,
      "ica": 3840,
      "uman": 3841,
      "Ġcheese": 3842,
      "Ġinterp": 3843,
      "ĠCalifornia": 3844,
      "ĠAre": 3845,
      "ĠFrench": 3846,
      "Ġyourself": 3847,
      "Ġsunny": 3848,
      "Ġalthough": 3849,
      "estic": 3850,
      "Ġseems": 3851,
      "Ġesc": 3852,
      "AN": 3853,
      "ovember": 3854,
      "Ġcapital": 3855,
      "Ġthus": 3856,
      "Ġstret": 3857,
      "ĠMe": 3858,
      "Ġpoints": 3859,
      "Ġbirthday": 3860,
      "olic": 3861,
      "ĠThank": 3862,
      "Ġplanet": 3863,
      "ĠDavid": 3864,
      "ĠMany": 3865,
      "ĠInside": 3866,
      "Ġlaughing": 3867,
      "ON": 3868,
      "ille": 3869,
      "Ġblock": 3870,
      "Ġallowed": 3871,
      "Ġfamilies": 3872,
      "mosp": 3873,
      "rast": 3874,
      "Ġson": 3875,
      "Ġpump": 3876,
      "Ġscreen": 3877,
      "Ġpersonal": 3878,
      "ĠGrandma": 3879,
      "Ġload": 3880,
      "ustain": 3881,
      "Ġnetwork": 3882,
      "eptember": 3883,
      "Ġrelieved": 3884,
      "kes": 3885,
      "vered": 3886,
      "Ġgets": 3887,
      "Ġcalc": 3888,
      "cohol": 3889,
      "Ġrobot": 3890,
      "Ġwearing": 3891,
      "Ġthinking": 3892,
      "ength": 3893,
      "ĠApril": 3894,
      "Ġring": 3895,
      "Ġbutton": 3896,
      "Ġchick": 3897,
      "Ġconsist": 3898,
      "Ġassess": 3899,
      "life": 3900,
      "vest": 3901,
      "Ġfem": 3902,
      "Ġkite": 3903,
      "Ġchoose": 3904,
      "Ġdispl": 3905,
      "Ġassist": 3906,
      "Ġmiles": 3907,
      "Ġfixed": 3908,
      "ned": 3909,
      "Ġtar": 3910,
      "Ġcompan": 3911,
      "Ġcentral": 3912,
      "Ġsnowman": 3913,
      "Ġhundred": 3914,
      "Ġnames": 3915,
      "Ġwaste": 3916,
      "reek": 3917,
      "Ġindependent": 3918,
      "Ġmis": 3919,
      "orders": 3920,
      "Ġgrew": 3921,
      "Ġtests": 3922,
      "ĠChristian": 3923,
      "ola": 3924,
      "ĠCong": 3925,
      "Ġintegr": 3926,
      "Ġhumans": 3927,
      "Ġeasily": 3928,
      "Ġdemand": 3929,
      "iber": 3930,
      "Ġsus": 3931,
      "Ġcute": 3932,
      "Ġpill": 3933,
      "Ġrules": 3934,
      "ĠCome": 3935,
      "ores": 3936,
      "Ġsort": 3937,
      "andy": 3938,
      "Ġcompared": 3939,
      "Ġactive": 3940,
      "ĠIndian": 3941,
      "Ġmilitary": 3942,
      "Ġcitiz": 3943,
      "ran": 3944,
      "ulated": 3945,
      "Ġshape": 3946,
      "abet": 3947,
      "shine": 3948,
      "ĠGovern": 3949,
      "Ġspirit": 3950,
      "opping": 3951,
      "Ġboun": 3952,
      "see": 3953,
      "erson": 3954,
      "Ġsurround": 3955,
      "Ġvariety": 3956,
      "Ġindividuals": 3957,
      "Ġmethods": 3958,
      "ĠSometimes": 3959,
      "ĠEl": 3960,
      "Ġgiving": 3961,
      "Ġcauses": 3962,
      "Ġsummer": 3963,
      "Ġaccidentally": 3964,
      "Ġsugar": 3965,
      "IT": 3966,
      "ees": 3967,
      "Ġwid": 3968,
      "isp": 3969,
      "Ġmap": 3970,
      "Ġlucky": 3971,
      "Ġnorth": 3972,
      "âĢ¦": 3973,
      "Ġchanged": 3974,
      "iger": 3975,
      "Ġolder": 3976,
      "Ġfamous": 3977,
      "Ġsunshine": 3978,
      "Ġtaste": 3979,
      "Ġfighting": 3980,
      "OR": 3981,
      "Ġcust": 3982,
      "ĠWashington": 3983,
      "Ġpool": 3984,
      "Ġbottle": 3985,
      "ulate": 3986,
      "Ġaltern": 3987,
      "istics": 3988,
      "Ġmemory": 3989,
      "ilos": 3990,
      "imum": 3991,
      "urb": 3992,
      "Ġremind": 3993,
      "Ġexpos": 3994,
      "Ġexpensive": 3995,
      "Ġaffect": 3996,
      "attle": 3997,
      "ĠPark": 3998,
      "Ġknee": 3999,
      "ternet": 4000,
      "Ġwag": 4001,
      "Ġputs": 4002,
      "Ġcommunities": 4003,
      "Ġdefin": 4004,
      "irm": 4005,
      "Ġculture": 4006,
      "ĠTwe": 4007,
      "Ġgar": 4008,
      "Ġhabit": 4009,
      "Ġtherefore": 4010,
      "Ġdestroy": 4011,
      "Ġful": 4012,
      "onom": 4013,
      "aled": 4014,
      "Ġinteract": 4015,
      "Ġsearched": 4016,
      "using": 4017,
      "Ġbalance": 4018,
      "Ġremain": 4019,
      "Ġprotein": 4020,
      "yle": 4021,
      "enced": 4022,
      "Ġmoon": 4023,
      "Ġleaders": 4024,
      "ĠEduc": 4025,
      "year": 4026,
      "Ġpudd": 4027,
      "Ġcovered": 4028,
      "Ġbroad": 4029,
      "Ġtrip": 4030,
      "Ġsection": 4031,
      "ete": 4032,
      "elp": 4033,
      "Ġwebs": 4034,
      "ĠPeter": 4035,
      "Ġoffer": 4036,
      "ĠChild": 4037,
      "Ġjournal": 4038,
      "Ġdescribed": 4039,
      "eed": 4040,
      "wise": 4041,
      "isions": 4042,
      "Ġlines": 4043,
      "Ġlarger": 4044,
      "Ġapplication": 4045,
      "Ġbeginning": 4046,
      "Ġeggs": 4047,
      "Ġvideo": 4048,
      "ĠInt": 4049,
      "Ġfunct": 4050,
      "ondon": 4051,
      "Ġgenetic": 4052,
      "Ġglass": 4053,
      "ointed": 4054,
      "ĠHistory": 4055,
      "Ġpal": 4056,
      "Ġbeg": 4057,
      "Ġfeather": 4058,
      "ĠAnn": 4059,
      "Ġadditional": 4060,
      "Ġsouth": 4061,
      "inical": 4062,
      "ellig": 4063,
      "Ġtalked": 4064,
      "Ġsociety": 4065,
      "Ġdanced": 4066,
      "omb": 4067,
      "Ġgigg": 4068,
      "Ġsymb": 4069,
      "Ġtells": 4070,
      "Ġhoney": 4071,
      "Ġreview": 4072,
      "Ġwaiting": 4073,
      "Ġsandw": 4074,
      "erry": 4075,
      "Ġfaces": 4076,
      "Ġfresh": 4077,
      "arf": 4078,
      "Ġlibr": 4079,
      "ournal": 4080,
      "Ġstrugg": 4081,
      "Ġlimited": 4082,
      "inate": 4083,
      "Ġgrad": 4084,
      "Ġpray": 4085,
      "Ġcozy": 4086,
      "Ġconfused": 4087,
      "ĠJanuary": 4088,
      "ĠAugust": 4089,
      "ufact": 4090,
      "yal": 4091,
      "Ġpush": 4092,
      "Ġmatch": 4093,
      "Ġdamage": 4094,
      "Ġtiss": 4095,
      "ishes": 4096,
      "Ġstring": 4097,
      "Ġdifference": 4098,
      "ĠAssoci": 4099,
      "term": 4100,
      "Ġcloth": 4101,
      "ham": 4102,
      "Ġhello": 4103,
      "Ġsmiling": 4104,
      "ibr": 4105,
      "Ġstanding": 4106,
      "Ġlaws": 4107,
      "Ġperformance": 4108,
      "Ġborn": 4109,
      "apers": 4110,
      "24": 4111,
      "atively": 4112,
      "oming": 4113,
      "ĠPaul": 4114,
      "Ġgrab": 4115,
      "Ġdetermine": 4116,
      "Ġsmooth": 4117,
      "isms": 4118,
      "Ġnerv": 4119,
      "Ġappropri": 4120,
      "Ġunderstood": 4121,
      "__": 4122,
      "Ġthick": 4123,
      "Ġec": 4124,
      "Hey": 4125,
      "Ġsongs": 4126,
      "Ġden": 4127,
      "Ġscale": 4128,
      "Ġbottom": 4129,
      "pite": 4130,
      "alk": 4131,
      "icated": 4132,
      "Ġrat": 4133,
      "ĠPre": 4134,
      "ĠRec": 4135,
      "Ġvegetables": 4136,
      "Just": 4137,
      "Ġfill": 4138,
      "Ġinstit": 4139,
      "ĠSociety": 4140,
      "PA": 4141,
      "osition": 4142,
      "ĠOct": 4143,
      "Ġtasty": 4144,
      "Ġidentify": 4145,
      "Good": 4146,
      "inct": 4147,
      "itis": 4148,
      "Ġvict": 4149,
      "ĠGl": 4150,
      "Ġbell": 4151,
      "Ġdecision": 4152,
      "Ġradio": 4153,
      "Ġweeks": 4154,
      "oly": 4155,
      "uk": 4156,
      "erg": 4157,
      "ĠMama": 4158,
      "fered": 4159,
      "Ġresponse": 4160,
      "mon": 4161,
      "Ġdied": 4162,
      "ĠMost": 4163,
      "Ġsequ": 4164,
      "Ġcontains": 4165,
      "Ġimplement": 4166,
      "Ġflag": 4167,
      "Ġseparate": 4168,
      "Ġmolec": 4169,
      "Ġbacter": 4170,
      "ĠAlthough": 4171,
      "ĠBrown": 4172,
      "ĠMedic": 4173,
      "Ġspring": 4174,
      "Ġsack": 4175,
      "Ġrefer": 4176,
      "Ġrolled": 4177,
      "nel": 4178,
      "Ġtox": 4179,
      "Ġducks": 4180,
      "Ġvir": 4181,
      "rael": 4182,
      "Ġcoin": 4183,
      "Ġrepe": 4184,
      "Ġsaying": 4185,
      "Ġcreative": 4186,
      "ĠDecember": 4187,
      "Ġcrayons": 4188,
      "60": 4189,
      "iers": 4190,
      "Ġ,": 4191,
      "Ġchocol": 4192,
      "Ġfinish": 4193,
      "Ġsnake": 4194,
      "Ġdiseases": 4195,
      "dd": 4196,
      "Ġkid": 4197,
      "merc": 4198,
      "ĠIndia": 4199,
      "Ġprimary": 4200,
      "Ġleading": 4201,
      "Ġearlier": 4202,
      "wo": 4203,
      "yond": 4204,
      "Ġhidden": 4205,
      "ĠSeptember": 4206,
      "Ġwealth": 4207,
      "Ġefforts": 4208,
      "Ġlegal": 4209,
      "Ġcorrect": 4210,
      "Ġfine": 4211,
      "Ġ2006": 4212,
      "Ġsoftware": 4213,
      "Ġdirectly": 4214,
      "cription": 4215,
      "ev": 4216,
      "Ġaud": 4217,
      "Ġpile": 4218,
      "ari": 4219,
      "iving": 4220,
      "Ġlegs": 4221,
      "Ġveh": 4222,
      "ĠJimmy": 4223,
      "Ġoffered": 4224,
      "Ġrope": 4225,
      "lla": 4226,
      "Ġcenter": 4227,
      "ography": 4228,
      "Ġmountain": 4229,
      "ustrated": 4230,
      "itic": 4231,
      "ĠPat": 4232,
      "lim": 4233,
      "ses": 4234,
      "isa": 4235,
      "Ġrout": 4236,
      "Ġshall": 4237,
      "Ġspoon": 4238,
      "Ġdecl": 4239,
      "Ġbush": 4240,
      "Ġavoid": 4241,
      "While": 4242,
      "ĠEuropean": 4243,
      "rs": 4244,
      "Ġterr": 4245,
      "Ġformer": 4246,
      "Ġspotted": 4247,
      "Ġroof": 4248,
      "Ġexcept": 4249,
      "Ġhyd": 4250,
      "Ġing": 4251,
      "Ġhost": 4252,
      "Ġpp": 4253,
      "ope": 4254,
      "ĠPlease": 4255,
      "ĠMc": 4256,
      "ĠCoun": 4257,
      "These": 4258,
      "Ġwhenever": 4259,
      "Ġlovely": 4260,
      "Ġsteps": 4261,
      "ha": 4262,
      "uries": 4263,
      "idents": 4264,
      "Ġru": 4265,
      "Ġtruth": 4266,
      "Ġzoo": 4267,
      "can": 4268,
      "ecut": 4269,
      "ĠSammy": 4270,
      "See": 4271,
      "Ġlit": 4272,
      "enty": 4273,
      "Ġseat": 4274,
      "ram": 4275,
      "ĠNot": 4276,
      "40": 4277,
      "Ġforces": 4278,
      "lam": 4279,
      "ties": 4280,
      "Ġtaught": 4281,
      "ashed": 4282,
      "Ġstone": 4283,
      "Ġsharing": 4284,
      "ĠUN": 4285,
      "ension": 4286,
      "Ġorganized": 4287,
      "Ġmention": 4288,
      "roc": 4289,
      "ĠAlex": 4290,
      "Ġash": 4291,
      "Ġ2005": 4292,
      "Ġzoom": 4293,
      "Ġmessage": 4294,
      "Ġexercise": 4295,
      "IC": 4296,
      "water": 4297,
      "rec": 4298,
      "Ġrough": 4299,
      "Ġshr": 4300,
      "Ġprivate": 4301,
      "Ġchocolate": 4302,
      "hest": 4303,
      "Ġhyp": 4304,
      "aching": 4305,
      "igation": 4306,
      "ĠLaw": 4307,
      "ĠJournal": 4308,
      "ipment": 4309,
      "Ġshowing": 4310,
      "26": 4311,
      "Ġbark": 4312,
      "ĠBo": 4313,
      "Ġrule": 4314,
      "ests": 4315,
      "Ġloves": 4316,
      "Ġpositive": 4317,
      "ĠGerman": 4318,
      "Ġtarget": 4319,
      "ns": 4320,
      "Ġoven": 4321,
      "Ġtom": 4322,
      "Ġshining": 4323,
      "Ġsevere": 4324,
      "gery": 4325,
      "Ġsolar": 4326,
      "Ġspray": 4327,
      "Ġmid": 4328,
      "Ġgently": 4329,
      "Ġobjects": 4330,
      "IV": 4331,
      "body": 4332,
      "iest": 4333,
      "Ġblow": 4334,
      "isl": 4335,
      "Ġlack": 4336,
      "Ġscr": 4337,
      "Ġacid": 4338,
      "Ġmaybe": 4339,
      "Lucy": 4340,
      "ĠSch": 4341,
      "ĠHere": 4342,
      "Ġatmosp": 4343,
      "Ġgray": 4344,
      "Ġchest": 4345,
      "Ġlargest": 4346,
      "Ġtransport": 4347,
      "Ġ2013": 4348,
      "ky": 4349,
      "uous": 4350,
      "Ġdirt": 4351,
      "ĠLondon": 4352,
      "ĠNovember": 4353,
      "Ġprotection": 4354,
      "ils": 4355,
      "Ġreact": 4356,
      "Ġweather": 4357,
      "ĠEnd": 4358,
      "ĠAng": 4359,
      "ĠSocial": 4360,
      "urg": 4361,
      "Ġmanufact": 4362,
      "Ġ21": 4363,
      "Ġcoast": 4364,
      "Ġwalls": 4365,
      "70": 4366,
      "Ġrot": 4367,
      "Ġrub": 4368,
      "Ġapples": 4369,
      "Ġtasted": 4370,
      "ĠDevelop": 4371,
      "Ġsmelled": 4372,
      "23": 4373,
      "29": 4374,
      "Ġasleep": 4375,
      "Ġplate": 4376,
      "Ġtea": 4377,
      "Ġstrength": 4378,
      "Ġcamer": 4379,
      "ĠTV": 4380,
      "Ġchance": 4381,
      "Ġ2000": 4382,
      "With": 4383,
      "eding": 4384,
      "iled": 4385,
      "ĠServ": 4386,
      "ĠJames": 4387,
      "Ġcolon": 4388,
      "Ġbenefits": 4389,
      "men": 4390,
      "Ġwash": 4391,
      "enth": 4392,
      "izes": 4393,
      "Ġcoat": 4394,
      "Ġmetal": 4395,
      "Ġtransm": 4396,
      "Ġtrack": 4397,
      "ounds": 4398,
      "Ġrecently": 4399,
      "iles": 4400,
      "ado": 4401,
      "ĠDNA": 4402,
      "Ġweb": 4403,
      "Ġpregn": 4404,
      "Ġcere": 4405,
      "Ġcode": 4406,
      "ĠMittens": 4407,
      "alled": 4408,
      "Ġadop": 4409,
      "assed": 4410,
      "ologies": 4411,
      "Ġremo": 4412,
      "Ġexpected": 4413,
      "Ġsnack": 4414,
      "'ve": 4415,
      "Ġerr": 4416,
      "ĠTe": 4417,
      "Ġstood": 4418,
      "Ġspider": 4419,
      "ella": 4420,
      "ĠGreen": 4421,
      "Ġimages": 4422,
      "Ġadvice": 4423,
      "Ġreceive": 4424,
      "uls": 4425,
      "ĠInter": 4426,
      "Ġdogs": 4427,
      "ĠVir": 4428,
      "ĠAmericans": 4429,
      "Ġcollection": 4430,
      "Ġsuggested": 4431,
      "cast": 4432,
      "Ġstage": 4433,
      "Ġdecor": 4434,
      "Ġresponsible": 4435,
      "Ġvitamin": 4436,
      "ĠMark": 4437,
      "ĠFirst": 4438,
      "'d": 4439,
      "iology": 4440,
      "Ġpin": 4441,
      "Ġmud": 4442,
      "Ġ23": 4443,
      "Ġtra": 4444,
      "Ġwaters": 4445,
      "Ġautom": 4446,
      "Ġsexual": 4447,
      "Ġhar": 4448,
      "Ġrap": 4449,
      "ĠDis": 4450,
      "Ġcolour": 4451,
      "issions": 4452,
      "Ġempt": 4453,
      "Ġfinanc": 4454,
      "Ġlocated": 4455,
      "Ġrocket": 4456,
      "hold": 4457,
      "ĠToday": 4458,
      "ĠPar": 4459,
      "Ġeval": 4460,
      "Ġknowing": 4461,
      "ĠCanada": 4462,
      "ĠWilliam": 4463,
      "Ġevolution": 4464,
      "ĠOther": 4465,
      "Ġsites": 4466,
      "Ġproperty": 4467,
      "Ġnervous": 4468,
      "Ġmission": 4469,
      "Ġproced": 4470,
      "Ġvan": 4471,
      "lower": 4472,
      "Ġclever": 4473,
      "Ġfilm": 4474,
      "Ġsend": 4475,
      "asons": 4476,
      "ĠCour": 4477,
      "Ġgrown": 4478,
      "ĠAfrica": 4479,
      "Ġwaves": 4480,
      "imate": 4481,
      "Ġfinding": 4482,
      "ĠIsrael": 4483,
      "Ġpeaceful": 4484,
      "Ġtoward": 4485,
      "ĠOb": 4486,
      "ĠReg": 4487,
      "Ġsquare": 4488,
      "Ġeconomy": 4489,
      "Ġcalm": 4490,
      "iat": 4491,
      "now": 4492,
      "Ġder": 4493,
      "osaur": 4494,
      "ĠIsland": 4495,
      "sing": 4496,
      "riage": 4497,
      "ĠMon": 4498,
      "ĠVal": 4499,
      "Ġprior": 4500,
      "ĠGeorge": 4501,
      "Ġnotice": 4502,
      "Ġlose": 4503,
      "Ġsuit": 4504,
      "Ġuser": 4505,
      "Ġdecre": 4506,
      "Ġdiscover": 4507,
      "aly": 4508,
      "ico": 4509,
      "Ġseason": 4510,
      "Ġimpl": 4511,
      "Ġadminist": 4512,
      "Ġbank": 4513,
      "ĠCr": 4514,
      "Ġmeat": 4515,
      "ologist": 4516,
      "ĠCouncil": 4517,
      "Ġ=": 4518,
      "Ġaware": 4519,
      "ĠChurch": 4520,
      "Ġnumer": 4521,
      "gypt": 4522,
      "ĠProgram": 4523,
      "rogen": 4524,
      "ĠCity": 4525,
      "Ġleaf": 4526,
      "Ġwinter": 4527,
      "Ġembarr": 4528,
      "Ġsymbol": 4529,
      "Ġwip": 4530,
      "edia": 4531,
      "Ġinn": 4532,
      "ĠJews": 4533,
      "abetes": 4534,
      "met": 4535,
      "Ġtor": 4536,
      "aint": 4537,
      "ĠFred": 4538,
      "Ġgene": 4539,
      "bruary": 4540,
      "Ġequipment": 4541,
      "Ġbillion": 4542,
      "off": 4543,
      "sp": 4544,
      "ĠTechn": 4545,
      "ighter": 4546,
      "Ġeffort": 4547,
      "Ġdelight": 4548,
      "Ġbelieved": 4549,
      "Ġcouch": 4550,
      "Ġcounter": 4551,
      "AL": 4552,
      "Come": 4553,
      "Molly": 4554,
      "eff": 4555,
      "Ġund": 4556,
      "igr": 4557,
      "Ġalt": 4558,
      "Ġcommand": 4559,
      "Ġfrag": 4560,
      "Ġpretended": 4561,
      "Ġcompanies": 4562,
      "iar": 4563,
      "Ġfruits": 4564,
      "Ġcommunication": 4565,
      "Ġdrugs": 4566,
      "Ġbreath": 4567,
      "II": 4568,
      "ittee": 4569,
      "Ġgenes": 4570,
      "encies": 4571,
      "Tommy": 4572,
      "Ġrequires": 4573,
      "Ġachieve": 4574,
      "Ġcompon": 4575,
      "Ġteachers": 4576,
      "ygen": 4577,
      "Ġpic": 4578,
      "Ġbod": 4579,
      "Ġurl": 4580,
      "Ġdaily": 4581,
      "box": 4582,
      "Ġexact": 4583,
      "ĠInc": 4584,
      "arsh": 4585,
      "nes": 4586,
      "Ġeager": 4587,
      "Ġstress": 4588,
      "Ġremains": 4589,
      "ĠRoman": 4590,
      "Ġkinds": 4591,
      "Ġsigns": 4592,
      "Ġcompletely": 4593,
      "Ġtomorrow": 4594,
      "Ġbeyond": 4595,
      "Ġasking": 4596,
      "ĠWater": 4597,
      "Ġvot": 4598,
      "ĠEast": 4599,
      "Ġinfluence": 4600,
      "Ex": 4601,
      "lin": 4602,
      "uate": 4603,
      "Ġwand": 4604,
      "Ġult": 4605,
      "load": 4606,
      "ĠSmith": 4607,
      "Ġcitizens": 4608,
      "27": 4609,
      "awn": 4610,
      "Ġeth": 4611,
      "umber": 4612,
      "Ġ26": 4613,
      "izations": 4614,
      "Ġinfection": 4615,
      "Here": 4616,
      "Ġdrawing": 4617,
      "Ġcosts": 4618,
      "iciency": 4619,
      "oons": 4620,
      "Ġsaved": 4621,
      "Ġisn": 4622,
      "Ġleaving": 4623,
      "Ġ195": 4624,
      "Ġattack": 4625,
      "ĠArt": 4626,
      "reedom": 4627,
      "ĠEnvironment": 4628,
      "ĠSystem": 4629,
      "Ġexposure": 4630,
      "itle": 4631,
      "Ġintellig": 4632,
      "Ġnegative": 4633,
      "Ġrecommend": 4634,
      "Ġtid": 4635,
      "Ġcoo": 4636,
      "ĠBudd": 4637,
      "ĠCD": 4638,
      "Ġprogress": 4639,
      "Ġunus": 4640,
      "lor": 4641,
      "ĠJes": 4642,
      "Ġsecurity": 4643,
      "cles": 4644,
      "pose": 4645,
      "Ġtrib": 4646,
      "hem": 4647,
      "rees": 4648,
      "Ġsituation": 4649,
      ".|": 4650,
      "DA": 4651,
      "Ġsustain": 4652,
      "Ġmanaged": 4653,
      "Ġ190": 4654,
      "Ġpresident": 4655,
      "Ġformed": 4656,
      "rm": 4657,
      "Ġtraff": 4658,
      "Ġ186": 4659,
      "Ġempty": 4660,
      "28": 4661,
      "ida": 4662,
      "iven": 4663,
      "Ġfoods": 4664,
      "Ġ60": 4665,
      "Ġbasis": 4666,
      "ĠPeople": 4667,
      "Ġadults": 4668,
      "Ġcards": 4669,
      "Ġug": 4670,
      "ĠHen": 4671,
      "Ġstaff": 4672,
      "Ġspicy": 4673,
      "Ġscreamed": 4674,
      "Ġperhaps": 4675,
      "Ġ193": 4676,
      "Ġoccurs": 4677,
      "Ġnuclear": 4678,
      "EN": 4679,
      "wide": 4680,
      "anks": 4681,
      "Ġshy": 4682,
      "Ġcommerc": 4683,
      "aped": 4684,
      "Ġquar": 4685,
      "Ġserve": 4686,
      "Ġallows": 4687,
      "iques": 4688,
      "Ġrapid": 4689,
      "lict": 4690,
      "eration": 4691,
      "Ġrise": 4692,
      "ĠOff": 4693,
      "Ġanti": 4694,
      "ĠEngland": 4695,
      "ĠJenny": 4696,
      "Ġinterpret": 4697,
      "atur": 4698,
      "Ġren": 4699,
      "resp": 4700,
      "Ġwebsite": 4701,
      ".;": 4702,
      "Ġalcohol": 4703,
      "Ġjog": 4704,
      "Ġcheer": 4705,
      "Ġdistrict": 4706,
      "Ġcapac": 4707,
      "Ġfields": 4708,
      "ĠGreat": 4709,
      "Ġrelative": 4710,
      "Ġcritical": 4711,
      "ĠUnion": 4712,
      "Ġforgive": 4713,
      "Ġhouses": 4714,
      "ero": 4715,
      "ĠAir": 4716,
      "aph": 4717,
      "Ġletters": 4718,
      "ricult": 4719,
      "Ġclassroom": 4720,
      "Ġcred": 4721,
      "Ġlength": 4722,
      "ĠAssociation": 4723,
      "Ġmember": 4724,
      "keep": 4725,
      "ĠDan": 4726,
      "ĠEgypt": 4727,
      "Ġaccur": 4728,
      "Ġelements": 4729,
      "Ġdevice": 4730,
      "Ġessential": 4731,
      "ford": 4732,
      "Ġdecide": 4733,
      "Ġ2004": 4734,
      "Ġlocation": 4735,
      "Ġenter": 4736,
      "apping": 4737,
      "Ġfurry": 4738,
      "Ġmultiple": 4739,
      "Ġfinger": 4740,
      "Ġpuzzle": 4741,
      "Is": 4742,
      "Un": 4743,
      "Ġwife": 4744,
      "Ġagricult": 4745,
      "athered": 4746,
      "Ġdisplay": 4747,
      "Ġappropriate": 4748,
      "EC": 4749,
      "rest": 4750,
      "Ġhiding": 4751,
      "Ġyouth": 4752,
      "Ġobt": 4753,
      "Ġemot": 4754,
      "Ġreligious": 4755,
      "All": 4756,
      "ml": 4757,
      "Ġtries": 4758,
      "ĠMich": 4759,
      "Ġshore": 4760,
      "ĠViet": 4761,
      "Ġcreature": 4762,
      "Ġteaching": 4763,
      "Ġbugs": 4764,
      "equ": 4765,
      "Ġmut": 4766,
      "Ġchoice": 4767,
      "Ġprison": 4768,
      "ĠCommun": 4769,
      "OS": 4770,
      "Where": 4771,
      "ipl": 4772,
      "Ġwore": 4773,
      "anding": 4774,
      "ED": 4775,
      "pire": 4776,
      "ruct": 4777,
      "Ġiron": 4778,
      "Ġdy": 4779,
      "cend": 4780,
      "ements": 4781,
      "Please": 4782,
      "Ġphilos": 4783,
      "Ġcow": 4784,
      "rief": 4785,
      "Ġrates": 4786,
      "ĠNor": 4787,
      "Ġdisp": 4788,
      "Ġunc": 4789,
      "Ġblew": 4790,
      "ĠEducation": 4791,
      "Ġdate": 4792,
      "apter": 4793,
      "Ġworth": 4794,
      "Ġdeal": 4795,
      "Ġjoined": 4796,
      "house": 4797,
      "uable": 4798,
      "ĠSince": 4799,
      "Ġshut": 4800,
      "Ġfinal": 4801,
      "Ġtransl": 4802,
      "Ġpicnic": 4803,
      "isk": 4804,
      "ĠDay": 4805,
      "anging": 4806,
      "Ġhighly": 4807,
      "Ġdiam": 4808,
      "Ġshirt": 4809,
      "ecture": 4810,
      "hens": 4811,
      "Ġcalling": 4812,
      "Ġcurrently": 4813,
      "Ġtrop": 4814,
      "Ġbur": 4815,
      "Ġlem": 4816,
      "ĠSus": 4817,
      "Ġmonit": 4818,
      "Ġtightly": 4819,
      "Ġtraditional": 4820,
      "Ġmicro": 4821,
      "ĠCounty": 4822,
      "Jim": 4823,
      "Ġnovel": 4824,
      "Ġbridge": 4825,
      "Ġmodels": 4826,
      "Ġlanded": 4827,
      "Ġphysic": 4828,
      "Ġmeeting": 4829,
      "ĠGeneral": 4830,
      "Ġimmediately": 4831,
      "bl": 4832,
      "Ġlink": 4833,
      "ĠSur": 4834,
      "entially": 4835,
      "Ġshoot": 4836,
      "Ġspend": 4837,
      "Ġpopulations": 4838,
      "ungle": 4839,
      "Ġshelf": 4840,
      "Ġtag": 4841,
      "Ġboys": 4842,
      "Ġsubs": 4843,
      "ributed": 4844,
      "iate": 4845,
      "Ġter": 4846,
      "Ġpir": 4847,
      "ĠHouse": 4848,
      "Ġreports": 4849,
      "Ġsticks": 4850,
      "Ġcomfortable": 4851,
      "Ġcustom": 4852,
      "Some": 4853,
      "icip": 4854,
      "ĠArch": 4855,
      "Ġobserved": 4856,
      "Ġreleased": 4857,
      "iot": 4858,
      "ĠWeb": 4859,
      "inese": 4860,
      "Ġmysterious": 4861,
      "Ġugly": 4862,
      "tr": 4863,
      "Ġsch": 4864,
      "lder": 4865,
      "ĠIts": 4866,
      "ĠEach": 4867,
      "Ġadj": 4868,
      "Ġacqu": 4869,
      "Ġoccup": 4870,
      "pir": 4871,
      "Ġped": 4872,
      "ighed": 4873,
      "âĢ¢": 4874,
      "Ġstarting": 4875,
      "Ġrelax": 4876,
      "Ġimportance": 4877,
      "Ġdinosaur": 4878,
      "Ġapplications": 4879,
      "rolled": 4880,
      "Ġensure": 4881,
      "Mum": 4882,
      "Ġtum": 4883,
      "Ġstation": 4884,
      "Ġstuff": 4885,
      "Ġappears": 4886,
      "Ġcoal": 4887,
      "Ġjumping": 4888,
      "Ġrespond": 4889,
      "Ġversion": 4890,
      "Ġoxygen": 4891,
      "ĠVirgin": 4892,
      "ender": 4893,
      "Ġtreats": 4894,
      "Ġladder": 4895,
      "Ġunusual": 4896,
      "Ġmelt": 4897,
      "ald": 4898,
      "imal": 4899,
      "ĠProt": 4900,
      "Ġchurch": 4901,
      "Ġapplied": 4902,
      "icted": 4903,
      "ĠFebruary": 4904,
      "Ġbodies": 4905,
      "Ġpages": 4906,
      "Ġdrew": 4907,
      "ĠAccording": 4908,
      "emy": 4909,
      "Ġconstruction": 4910,
      "anches": 4911,
      "Ġexplain": 4912,
      "ĠSpec": 4913,
      "ÅĵI": 4914,
      "Ġcookie": 4915,
      "rupt": 4916,
      "enge": 4917,
      "Ġjungle": 4918,
      "Ġhappening": 4919,
      "Ġhonest": 4920,
      "Ġpuddle": 4921,
      "Ġsight": 4922,
      "ĠSw": 4923,
      "ett": 4924,
      "acing": 4925,
      "Soon": 4926,
      "ĠCommission": 4927,
      "ĠPhil": 4928,
      "Ġbenefit": 4929,
      "ĠMedicine": 4930,
      "Ġvirt": 4931,
      "ĠDuring": 4932,
      "obile": 4933,
      "Ġsubst": 4934,
      "vision": 4935,
      "ening": 4936,
      "Ġgathered": 4937,
      "Ġ28": 4938,
      "Ġexpect": 4939,
      "Ġtesting": 4940,
      "Ġsolution": 4941,
      "Ġhistorical": 4942,
      "Re": 4943,
      "zed": 4944,
      "Ġlic": 4945,
      "Ġgate": 4946,
      "olar": 4947,
      "Ġmov": 4948,
      "ĠOctober": 4949,
      "Ġembarrassed": 4950,
      "Americ": 4951,
      "US": 4952,
      "Ġi": 4953,
      "Ġfancy": 4954,
      "ĠSan": 4955,
      "unte": 4956,
      "icking": 4957,
      "Ġ2001": 4958,
      "Ġflex": 4959,
      "Ġmissed": 4960,
      "Ġtoxic": 4961,
      "Ġtank": 4962,
      "Ġpun": 4963,
      "ĠBecause": 4964,
      "ĠMiss": 4965,
      "Ġseven": 4966,
      "Ġpainting": 4967,
      "Ġcrop": 4968,
      "Ġexperim": 4969,
      "Ġmixed": 4970,
      "under": 4971,
      "ito": 4972,
      "itz": 4973,
      "Ġconcentr": 4974,
      "Gr": 4975,
      "rome": 4976,
      "ĠSun": 4977,
      "ubbles": 4978,
      "ĠCongress": 4979,
      "mic": 4980,
      "Ġpaid": 4981,
      "Ġconstruct": 4982,
      "Ġknocked": 4983,
      "Ġvalues": 4984,
      "cript": 4985,
      "Ġchalleng": 4986,
      "lace": 4987,
      "Ġhid": 4988,
      "Ġpip": 4989,
      "idel": 4990,
      "Ġ2003": 4991,
      "ĠEmily": 4992,
      "do": 4993,
      "ĠProf": 4994,
      "Ġlayer": 4995,
      "edy": 4996,
      "ĠMet": 4997,
      "Ġdisorders": 4998,
      "Cl": 4999,
      "Ġflood": 5000,
      "Ġdevices": 5001,
      "Ġwhistle": 5002,
      "ĠCourt": 5003,
      "Ġtask": 5004,
      "Ġhomes": 5005,
      "Ġdust": 5006,
      "Ġinstruct": 5007,
      "Ġbecomes": 5008,
      "ancer": 5009,
      "Ġaffected": 5010,
      "Ġanswered": 5011,
      "ĠCollege": 5012,
      "Ġcultural": 5013,
      "uing": 5014,
      "ximately": 5015,
      "ĠTogether": 5016,
      "ĠSim": 5017,
      "Ġstir": 5018,
      "ĠNAS": 5019,
      "Ġquant": 5020,
      "Ġtherapy": 5021,
      "Ġextrem": 5022,
      "ĠGovernment": 5023,
      "78": 5024,
      "Me": 5025,
      "ias": 5026,
      "Ġassign": 5027,
      "Ġserved": 5028,
      "Ġcreating": 5029,
      "Ġax": 5030,
      "omas": 5031,
      "Ġglow": 5032,
      "semb": 5033,
      "ĠAg": 5034,
      "ĠMex": 5035,
      "Ġ29": 5036,
      "Ġbranches": 5037,
      "Ġstrateg": 5038,
      "Ġorganization": 5039,
      "Ġsparkly": 5040,
      "ĠRepublic": 5041,
      "Ġcarrots": 5042,
      "Ġfinancial": 5043,
      "Ġstra": 5044,
      "oli": 5045,
      "ulf": 5046,
      "Ġsmoke": 5047,
      "Ġremained": 5048,
      "Ġwheel": 5049,
      "Ġpatterns": 5050,
      "AM": 5051,
      "eep": 5052,
      "Ġbatter": 5053,
      "ste": 5054,
      "ula": 5055,
      "Ġprice": 5056,
      "Ġopin": 5057,
      "Ġreduced": 5058,
      "umpy": 5059,
      "Ġedge": 5060,
      "Ġtissue": 5061,
      "zing": 5062,
      "Ġpou": 5063,
      "Ġkitten": 5064,
      "Ġincred": 5065,
      "Ġunl": 5066,
      "Ġvaluable": 5067,
      "Ġhighest": 5068,
      "Ġequal": 5069,
      "Ġmental": 5070,
      "Ġrelease": 5071,
      "ĠFin": 5072,
      "Ġfeatures": 5073,
      "Ġknows": 5074,
      "Â°": 5075,
      "icial": 5076,
      "Ġthr": 5077,
      "ĠMod": 5078,
      "Ġballs": 5079,
      "Ġlimit": 5080,
      "Ġrecords": 5081,
      "Ġthousands": 5082,
      "itics": 5083,
      "ĠMill": 5084,
      "ĠWestern": 5085,
      "ector": 5086,
      "Ġunknown": 5087,
      "ĠChinese": 5088,
      "Ġprojects": 5089,
      "Ġdancing": 5090,
      "Ġreference": 5091,
      "oses": 5092,
      "Ġ189": 5093,
      "Ġdirection": 5094,
      "ĠFlor": 5095,
      "ĠGermany": 5096,
      "cope": 5097,
      "Ġmaintain": 5098,
      "AC": 5099,
      "iling": 5100,
      "Ġdish": 5101,
      "Ġstandards": 5102,
      "Ġanaly": 5103,
      "Ġcamera": 5104,
      "ĠHigh": 5105,
      "ĠBook": 5106,
      "Ġbelief": 5107,
      "Ġadvant": 5108,
      "Ġbarked": 5109,
      "Ġsalt": 5110,
      "ring": 5111,
      "Ġtherm": 5112,
      "Ġsheep": 5113,
      "Ġconv": 5114,
      "que": 5115,
      "ĠInternet": 5116,
      "Ġelectr": 5117,
      "Ġfunctions": 5118,
      "ĠJesus": 5119,
      "gal": 5120,
      "Ġconsequ": 5121,
      "Ġgrant": 5122,
      "Ġarr": 5123,
      "Ġfrustrated": 5124,
      "Ġproviding": 5125,
      "Ġguess": 5126,
      "Ġbreast": 5127,
      "Ġprocesses": 5128,
      "ĠTrans": 5129,
      "Ġsplash": 5130,
      "Ġtim": 5131,
      "asion": 5132,
      "Ġhears": 5133,
      "ĠLittle": 5134,
      "ĠMal": 5135,
      "Ġanx": 5136,
      "ĠThus": 5137,
      "ibly": 5138,
      "Ġstronger": 5139,
      "Ġpurpose": 5140,
      "33": 5141,
      "Ġtears": 5142,
      "Ġlung": 5143,
      "Ġinstr": 5144,
      "ria": 5145,
      "Ġconflict": 5146,
      "Ar": 5147,
      "Ġbound": 5148,
      "orage": 5149,
      "Ġplans": 5150,
      "Ġusers": 5151,
      "Ġcompar": 5152,
      "Ġsurgery": 5153,
      "Ġpolic": 5154,
      "Ġfactor": 5155,
      "Ġmajority": 5156,
      "Ġingred": 5157,
      "Ġcommercial": 5158,
      "ĠHuman": 5159,
      "Ġvacc": 5160,
      "ĠFound": 5161,
      "Ġ2002": 5162,
      "Ġtreated": 5163,
      "Ġdiabetes": 5164,
      "Ġcircle": 5165,
      "Ġtape": 5166,
      "oma": 5167,
      "Ġreasons": 5168,
      "Ġrul": 5169,
      "Ġ27": 5170,
      "Ġchew": 5171,
      "Ġtechniques": 5172,
      "band": 5173,
      "Ġfort": 5174,
      "abin": 5175,
      "Ġvent": 5176,
      "Who": 5177,
      "BN": 5178,
      "iples": 5179,
      "iform": 5180,
      "ĠOK": 5181,
      "ĠKitty": 5182,
      "Ġdrinking": 5183,
      "ographic": 5184,
      "ĠDevelopment": 5185,
      "ĠNASA": 5186,
      "Ġtick": 5187,
      "erior": 5188,
      "Ġpaw": 5189,
      "Ġmal": 5190,
      "Ġmax": 5191,
      "ingu": 5192,
      "icate": 5193,
      "Ġupper": 5194,
      "oop": 5195,
      "uces": 5196,
      "ĠRober": 5197,
      "Ġdrum": 5198,
      "Ġlegisl": 5199,
      "ET": 5200,
      "craft": 5201,
      "olid": 5202,
      "Ġwhale": 5203,
      "ĠEverywhere": 5204,
      "Ġaccepted": 5205,
      "Ġdegree": 5206,
      "Ġtur": 5207,
      "Ġlying": 5208,
      "stead": 5209,
      "Ġrude": 5210,
      "Ġvari": 5211,
      "Ġpractices": 5212,
      "right": 5213,
      "Ġforth": 5214,
      "Ġseeds": 5215,
      "Ġbrush": 5216,
      "Ġexcit": 5217,
      "Ġreliable": 5218,
      "vant": 5219,
      "oration": 5220,
      "ession": 5221,
      "Ġworm": 5222,
      "Ġunp": 5223,
      "ords": 5224,
      "Ġpersons": 5225,
      "ĠAustralia": 5226,
      "Ġbacteria": 5227,
      "bled": 5228,
      "ux": 5229,
      "Ġtomat": 5230,
      "Ġcoc": 5231,
      "Ġmuseum": 5232,
      "Ġnav": 5233,
      "Ġgain": 5234,
      "ĠSer": 5235,
      "ĠMag": 5236,
      "leton": 5237,
      "Ġstatus": 5238,
      "Ġelectricity": 5239,
      "Ġcapacity": 5240,
      "Sp": 5241,
      "iated": 5242,
      "Ġlat": 5243,
      "Ġcrab": 5244,
      "Ġsnacks": 5245,
      "Ġsuggests": 5246,
      "Ġborrow": 5247,
      "Ġgif": 5248,
      "ĠBu": 5249,
      "ĠMuseum": 5250,
      "Ġbecoming": 5251,
      "roph": 5252,
      "Ġclosely": 5253,
      "ĠRev": 5254,
      "Ġoperations": 5255,
      "Ġselfish": 5256,
      "Ġnecklace": 5257,
      "Ġnumerous": 5258,
      "45": 5259,
      "han": 5260,
      "lus": 5261,
      "erate": 5262,
      "ĠAv": 5263,
      "ĠMor": 5264,
      "ĠJake": 5265,
      "Ġstudied": 5266,
      "Ġhandle": 5267,
      "Ġpresence": 5268,
      "Ġexisting": 5269,
      "Ġstraight": 5270,
      "Ġsell": 5271,
      "Ġhero": 5272,
      "Ġstones": 5273,
      "ĠPort": 5274,
      "Ġjew": 5275,
      "Ġmeadow": 5276,
      "Ġclearly": 5277,
      "Ġdisappointed": 5278,
      "pet": 5279,
      "olph": 5280,
      "rian": 5281,
      "Ġeasier": 5282,
      "Ġidentified": 5283,
      "porary": 5284,
      "Ġintroduced": 5285,
      "aign": 5286,
      "Ġaid": 5287,
      "Ġchased": 5288,
      "Ġdeer": 5289,
      "198": 5290,
      "Ġescape": 5291,
      "35": 5292,
      "Are": 5293,
      "ok": 5294,
      "zard": 5295,
      "Ġwest": 5296,
      "Ġscarf": 5297,
      "Ġfindings": 5298,
      "Ġcrown": 5299,
      "Ġconservation": 5300,
      "Ġsafely": 5301,
      "Ġopportunity": 5302,
      "Ġfully": 5303,
      "Ġexcitement": 5304,
      "Ġwra": 5305,
      "Ġfoss": 5306,
      "Ġwhom": 5307,
      "istry": 5308,
      "Ġslight": 5309,
      "Ġexpress": 5310,
      "Ġtechnologies": 5311,
      "ĠRead": 5312,
      "Ġclaim": 5313,
      "Ġstructures": 5314,
      "Ġgarage": 5315,
      "ban": 5316,
      "Ġmarch": 5317,
      "iders": 5318,
      "add": 5319,
      "Ġrubb": 5320,
      "ugh": 5321,
      "Ġlock": 5322,
      "elled": 5323,
      "Ġcontext": 5324,
      "Ġrelatively": 5325,
      "Ġlibrary": 5326,
      "lant": 5327,
      "Ġ:": 5328,
      "Ġsed": 5329,
      "Ġpacked": 5330,
      "Ġears": 5331,
      "vert": 5332,
      "Ġyelled": 5333,
      "Ġtrial": 5334,
      "Ġmeasures": 5335,
      "Ġsandwich": 5336,
      "cious": 5337,
      "Ġhom": 5338,
      "ams": 5339,
      "ĠLou": 5340,
      "fully": 5341,
      "Ġsucceed": 5342,
      "Ġfaith": 5343,
      "Ġremoved": 5344,
      "Ġphen": 5345,
      "abilities": 5346,
      "Ġconstant": 5347,
      "Ġroot": 5348,
      "Ġactions": 5349,
      "Ġforeign": 5350,
      "ĠArab": 5351,
      "ushed": 5352,
      "Ġprince": 5353,
      "nergy": 5354,
      "respond": 5355,
      "aria": 5356,
      "ĠMass": 5357,
      "Ġ22": 5358,
      "Ġefficient": 5359,
      "Ġpersist": 5360,
      "Ġdistribution": 5361,
      "Ġdriving": 5362,
      "Ġdisappeared": 5363,
      "Ġchicken": 5364,
      "Ġtidy": 5365,
      "Ġcries": 5366,
      "Ġmel": 5367,
      "Ġmirr": 5368,
      "andom": 5369,
      "place": 5370,
      "Ġdifferences": 5371,
      "Ġexperi": 5372,
      "Ġdestroyed": 5373,
      "ÃŃ": 5374,
      "Ġcoord": 5375,
      "Ġframe": 5376,
      "Ġgenerous": 5377,
      "Ġoperation": 5378,
      "Ġirr": 5379,
      "ĠLisa": 5380,
      "Ġplastic": 5381,
      "osing": 5382,
      "ĠDirect": 5383,
      "Ġarmy": 5384,
      "Ġoffers": 5385,
      "phas": 5386,
      "Ġmuscle": 5387,
      "Ġestimated": 5388,
      "Ġtunnel": 5389,
      "bre": 5390,
      "Ġcities": 5391,
      "atin": 5392,
      "ĠTex": 5393,
      "Ġhearing": 5394,
      "Ġstamp": 5395,
      "ĠMount": 5396,
      "Ġnoted": 5397,
      "Ġenorm": 5398,
      "Ġflash": 5399,
      "Ġinterested": 5400,
      "Ġcommonly": 5401,
      "fortun": 5402,
      "Ġrecognized": 5403,
      "Ġprepared": 5404,
      "Ġchemicals": 5405,
      "Ġbored": 5406,
      "Ġpiz": 5407,
      "ĠMart": 5408,
      "Ġclinical": 5409,
      "Ġknife": 5410,
      "Ġregions": 5411,
      "Ġpolite": 5412,
      "Ġsleepy": 5413,
      "Ġfalls": 5414,
      "Ġindustrial": 5415,
      "Ġillness": 5416,
      "Ġmistake": 5417,
      "ĠVirginia": 5418,
      "Ġgather": 5419,
      "Ġchronic": 5420,
      "Ġcontract": 5421,
      "Ġdecades": 5422,
      "Ġqueen": 5423,
      "Ġdeliver": 5424,
      "Ġincreases": 5425,
      "ĠNews": 5426,
      "related": 5427,
      "Ġbathroom": 5428,
      "Ġelder": 5429,
      "Ġrestr": 5430,
      "ĠAut": 5431,
      "ĠBar": 5432,
      "ĠMum": 5433,
      "Ġloyal": 5434,
      "Ġchain": 5435,
      "ĠAlso": 5436,
      "HE": 5437,
      "Ġcage": 5438,
      "ache": 5439,
      "ĠLa": 5440,
      "ĠPublic": 5441,
      "Ġhappens": 5442,
      "issors": 5443,
      "Ġdefined": 5444,
      "Ġtypically": 5445,
      "ĠMedical": 5446,
      "Ġenormous": 5447,
      "ault": 5448,
      "back": 5449,
      "level": 5450,
      "Ġyield": 5451,
      "Ġrice": 5452,
      "izzy": 5453,
      "Ġsetting": 5454,
      "Ġserver": 5455,
      "Ġcooking": 5456,
      "Ġliterature": 5457,
      "RE": 5458,
      "hab": 5459,
      "Ġfreedom": 5460,
      "ctic": 5461,
      "Ġsubm": 5462,
      "Ġdistinct": 5463,
      "Ġcarrying": 5464,
      "laimed": 5465,
      "Ġordinary": 5466,
      "ĠChildren": 5467,
      "ien": 5468,
      "ĠMic": 5469,
      "Ġenh": 5470,
      "Ġcrack": 5471,
      "Ġfavour": 5472,
      "Ġpleased": 5473,
      "Ġreaction": 5474,
      "ĠCom": 5475,
      "Ġclown": 5476,
      "Ġscissors": 5477,
      "Ġimpress": 5478,
      "Jane": 5479,
      "kins": 5480,
      "Ġtent": 5481,
      "Ġcater": 5482,
      "atab": 5483,
      "Ġplayground": 5484,
      "ĠJohnny": 5485,
      "Ġashamed": 5486,
      "ĠHenry": 5487,
      ".||": 5488,
      "reement": 5489,
      "ogen": 5490,
      "ĠAsia": 5491,
      "ĠBritain": 5492,
      "eer": 5493,
      "yl": 5494,
      "road": 5495,
      "Ġvess": 5496,
      "Ġvia": 5497,
      "ensus": 5498,
      "Ġpatch": 5499,
      "Ġdiscovery": 5500,
      "Ġauth": 5501,
      "Ġorganizations": 5502,
      "Ġcreation": 5503,
      "Ġcompleted": 5504,
      "Ġwidely": 5505,
      "Ġsac": 5506,
      "Ġlaser": 5507,
      "Ġliqu": 5508,
      "Ġsailed": 5509,
      "Ġnewsp": 5510,
      "ĠISBN": 5511,
      "bor": 5512,
      "Ġstorage": 5513,
      "ĠCO": 5514,
      "Ġgrace": 5515,
      "Ġcontrast": 5516,
      "Ġcleaning": 5517,
      "ĠIslam": 5518,
      "Ġelev": 5519,
      "Ġobserv": 5520,
      "Ġtie": 5521,
      "Ġaw": 5522,
      "ventually": 5523,
      "Ġexperiment": 5524,
      "ĠFrance": 5525,
      "Stop": 5526,
      "pill": 5527,
      "Ġhappiness": 5528,
      "anges": 5529,
      "ĠUnder": 5530,
      "Ġqual": 5531,
      "Ġcleaned": 5532,
      "Ġmighty": 5533,
      "Ġleader": 5534,
      "Ġmessy": 5535,
      "Ġmotion": 5536,
      "Ġsusp": 5537,
      "Ġlemon": 5538,
      "Ġbelt": 5539,
      "itory": 5540,
      "Ġmos": 5541,
      "ĠCivil": 5542,
      "ĠUse": 5543,
      "ĠOf": 5544,
      "Ġremove": 5545,
      "fast": 5546,
      "ona": 5547,
      "Ġham": 5548,
      "Ġstem": 5549,
      "ĠIran": 5550,
      "Ġbrill": 5551,
      "ĠOur": 5552,
      "Ġminor": 5553,
      "Ġcollected": 5554,
      "Ġeducational": 5555,
      "yright": 5556,
      "aked": 5557,
      "mes": 5558,
      "rehens": 5559,
      "isted": 5560,
      "Ġarrow": 5561,
      "Ġlights": 5562,
      "Ġapproximately": 5563,
      "Ġchallenge": 5564,
      "ĠAcadem": 5565,
      "Ġfemale": 5566,
      "Ġalternative": 5567,
      "host": 5568,
      "ament": 5569,
      "illa": 5570,
      "Ġacadem": 5571,
      "berg": 5572,
      "ĠSte": 5573,
      "Ġcalls": 5574,
      "Mama": 5575,
      "oices": 5576,
      "Ġpapers": 5577,
      "Their": 5578,
      "Ġkilled": 5579,
      "ĠRel": 5580,
      "Ġsurvey": 5581,
      "Ġsolve": 5582,
      "ĠPhys": 5583,
      "Ġconducted": 5584,
      "Ph": 5585,
      "ndrome": 5586,
      "Ġbull": 5587,
      "Ġcabin": 5588,
      "iring": 5589,
      "Ġreb": 5590,
      "ĠBill": 5591,
      "ologists": 5592,
      "Ġpainted": 5593,
      "Ġpointing": 5594,
      "Ġruined": 5595,
      "Ġ...": 5596,
      "nds": 5597,
      "Ġmummy": 5598,
      "Ġlift": 5599,
      "Ġnic": 5600,
      "Ġshot": 5601,
      "Ġvote": 5602,
      "Ġbiggest": 5603,
      "ĠRob": 5604,
      "ribute": 5605,
      "Ġnods": 5606,
      "Ġplanning": 5607,
      "iverse": 5608,
      "Ġmissing": 5609,
      "Ġcircles": 5610,
      "32": 5611,
      "Sh": 5612,
      "fa": 5613,
      "yro": 5614,
      "Ġmath": 5615,
      "ĠCath": 5616,
      "Ġtrucks": 5617,
      "ĠPlan": 5618,
      "Ġestablish": 5619,
      "gl": 5620,
      "ixt": 5621,
      "Ġgal": 5622,
      "ĠLord": 5623,
      "ĠLife": 5624,
      "Ġsoap": 5625,
      "Ġputting": 5626,
      "ipping": 5627,
      "Ġexamine": 5628,
      "Ġconnection": 5629,
      "Ġemergency": 5630,
      "Ġlinks": 5631,
      "Ġpizza": 5632,
      "Ġbrilliant": 5633,
      "38": 5634,
      "Ab": 5635,
      "Pro": 5636,
      "cont": 5637,
      "iG": 5638,
      "viet": 5639,
      "Ġcateg": 5640,
      "Ġitems": 5641,
      "Ġpoly": 5642,
      "Ġcloset": 5643,
      "Ġ1999": 5644,
      "Ġpilot": 5645,
      "Ġatmosphere": 5646,
      "Ġbat": 5647,
      "Ġcub": 5648,
      "isher": 5649,
      "Ġscream": 5650,
      "Ġsolid": 5651,
      "Ġholds": 5652,
      "Ġproperties": 5653,
      "win": 5654,
      "well": 5655,
      "Ġast": 5656,
      "urse": 5657,
      "ĠBra": 5658,
      "Ġapprec": 5659,
      "Ġsyn": 5660,
      "ype": 5661,
      "Ġcorrespond": 5662,
      "American": 5663,
      "part": 5664,
      "Ġhorn": 5665,
      "ĠCast": 5666,
      "Ġpros": 5667,
      "aker": 5668,
      "ĠInformation": 5669,
      "Ġguard": 5670,
      "Ġinstance": 5671,
      "ictionary": 5672,
      "Ġopportunities": 5673,
      "ĠTexas": 5674,
      "Ġelderly": 5675,
      "hus": 5676,
      "Ġcher": 5677,
      "ophy": 5678,
      "Ġincor": 5679,
      "Ġcoins": 5680,
      "Ġtransfer": 5681,
      "ĠProv": 5682,
      "Ġmarried": 5683,
      "Ġpurch": 5684,
      "clop": 5685,
      "Ġincredible": 5686,
      "Ġbees": 5687,
      "anda": 5688,
      "Ġlean": 5689,
      "Ġexpand": 5690,
      "Ġharder": 5691,
      "Ġrequest": 5692,
      "ĠFranc": 5693,
      "Ġannual": 5694,
      "Ġannoun": 5695,
      "Ġwagged": 5696,
      "owed": 5697,
      "ĠBay": 5698,
      "ague": 5699,
      "ĠPal": 5700,
      "uster": 5701,
      "Ġbedroom": 5702,
      "Ġbuildings": 5703,
      "ĠWhite": 5704,
      "Ġbehavi": 5705,
      "Ġprofessor": 5706,
      "Ġofficials": 5707,
      "Ġcaterpill": 5708,
      "BC": 5709,
      "fish": 5710,
      "Ġturt": 5711,
      "Ġfake": 5712,
      "Ġexhib": 5713,
      "Ġseed": 5714,
      "ormal": 5715,
      "Ġexpression": 5716,
      "ĠCharles": 5717,
      "Dad": 5718,
      "RI": 5719,
      "Well": 5720,
      "ael": 5721,
      "yc": 5722,
      "Ġtooth": 5723,
      "Ġnative": 5724,
      "Ġstyle": 5725,
      "Ġliber": 5726,
      "ĠEv": 5727,
      "ĠProject": 5728,
      "Ġbitter": 5729,
      "appy": 5730,
      "Ġpresented": 5731,
      "Ġwheat": 5732,
      "pective": 5733,
      "Ġprofessional": 5734,
      "Ġdetails": 5735,
      "works": 5736,
      "Ġgiggled": 5737,
      "64": 5738,
      "New": 5739,
      "iance": 5740,
      "tle": 5741,
      "Ġbattle": 5742,
      "ĠFore": 5743,
      "Ġimpressed": 5744,
      "Ġunivers": 5745,
      "Ġcryst": 5746,
      "ĠAdd": 5747,
      "Ġimproved": 5748,
      "Ġfeathers": 5749,
      "Or": 5750,
      "Ġnotes": 5751,
      "ĠRich": 5752,
      "Ġobed": 5753,
      "Ġemissions": 5754,
      "Ġgeneration": 5755,
      "Ġvisual": 5756,
      "Ġperformed": 5757,
      "Ġexamples": 5758,
      "Ġrecorded": 5759,
      "Ġkissed": 5760,
      "Ġraised": 5761,
      "Res": 5762,
      "ellect": 5763,
      "Ġexposed": 5764,
      "Ġdistant": 5765,
      "Ġdisturb": 5766,
      "Ġjoint": 5767,
      "Ġterri": 5768,
      "fortunately": 5769,
      "Ġauthors": 5770,
      "Ġboring": 5771,
      "Ġmild": 5772,
      "Ġvase": 5773,
      "Ġchose": 5774,
      "Ġclock": 5775,
      "akers": 5776,
      "Ġactual": 5777,
      "ĠCommon": 5778,
      "Ġahead": 5779,
      "isy": 5780,
      "Ġlamp": 5781,
      "Ġdisorder": 5782,
      "Ġtwirl": 5783,
      "Ġantib": 5784,
      "ĠRobert": 5785,
      "ait": 5786,
      "hemat": 5787,
      "Ġol": 5788,
      "Ġeast": 5789,
      "Ġmeal": 5790,
      "Ġresc": 5791,
      "Ġanswers": 5792,
      "Ġwealthy": 5793,
      "ĠService": 5794,
      "CC": 5795,
      "what": 5796,
      "Ġfool": 5797,
      "ĠMD": 5798,
      "ĠJud": 5799,
      "Ġkeeping": 5800,
      "Ġmarriage": 5801,
      "Ġwindows": 5802,
      "Ġinvolve": 5803,
      "ĠBlack": 5804,
      "Ġtough": 5805,
      "Ġhopping": 5806,
      "Ġdolph": 5807,
      "ript": 5808,
      "ĠWomen": 5809,
      "ĠRoy": 5810,
      "Ġvision": 5811,
      "Ġsitu": 5812,
      "Sarah": 5813,
      "Ġorigin": 5814,
      "Ġresistance": 5815,
      "tons": 5816,
      "ĠTeddy": 5817,
      "igure": 5818,
      "ĠPM": 5819,
      "osity": 5820,
      "ĠEnergy": 5821,
      "Ġenvelop": 5822,
      "Ġstarts": 5823,
      "ĠThomas": 5824,
      "ibl": 5825,
      "Ġdrank": 5826,
      "Ġfollows": 5827,
      "azine": 5828,
      "Ġsweetie": 5829,
      "Ġproposed": 5830,
      "Ġresource": 5831,
      "Ġcampaign": 5832,
      "Ġingredients": 5833,
      "Ġmirror": 5834,
      "75": 5835,
      "uz": 5836,
      "Ġfishing": 5837,
      "Ġholes": 5838,
      "arrow": 5839,
      "ĠWhere": 5840,
      "Ġspoke": 5841,
      "Ġpartners": 5842,
      "Ġproperly": 5843,
      "Ġdigital": 5844,
      "Ġnorthern": 5845,
      "36": 5846,
      "ship": 5847,
      "oted": 5848,
      "ĠMil": 5849,
      "anged": 5850,
      "Ġglue": 5851,
      "grad": 5852,
      "Ġemail": 5853,
      "Ġcounty": 5854,
      "Ġarticles": 5855,
      "Ġspeech": 5856,
      "Ġbelonged": 5857,
      "Ġfif": 5858,
      "ĠInstead": 5859,
      "Ġwrit": 5860,
      "Ġemphas": 5861,
      "Ġcausing": 5862,
      "ĠBlue": 5863,
      "ĠMrs": 5864,
      "Ġproteins": 5865,
      "Ġpredict": 5866,
      "Ġarchit": 5867,
      "Ġstretch": 5868,
      "Go": 5869,
      "ĠSen": 5870,
      "Ġearn": 5871,
      "ĠHIV": 5872,
      "Ġupd": 5873,
      "Ġchief": 5874,
      "Ġuns": 5875,
      "Ġwalks": 5876,
      "Ġ80": 5877,
      "Many": 5878,
      "Ġhus": 5879,
      "Ġdim": 5880,
      "Ġnations": 5881,
      "char": 5882,
      "essor": 5883,
      "ously": 5884,
      "Ġcolle": 5885,
      "Ġdoctors": 5886,
      "Ġstatement": 5887,
      "Ġthankful": 5888,
      "Ġfailure": 5889,
      "Ġprepare": 5890,
      "Help": 5891,
      "ij": 5892,
      "Ġhour": 5893,
      "Ġhipp": 5894,
      "ĠTest": 5895,
      "urrent": 5896,
      "Ġvary": 5897,
      "Ġrose": 5898,
      "Ġgrumpy": 5899,
      "Ġdiss": 5900,
      "Ġfridge": 5901,
      "Ġcounted": 5902,
      "Ġtemperatures": 5903,
      "Ġmeasured": 5904,
      "ĠEnvironmental": 5905,
      "Ġpolicies": 5906,
      "90": 5907,
      "Ġpale": 5908,
      "Ġspect": 5909,
      "Ġknight": 5910,
      "ensity": 5911,
      "Ġcheap": 5912,
      "ossible": 5913,
      "Ġvisited": 5914,
      "Ġmathemat": 5915,
      "Ġrisks": 5916,
      "Ġconclud": 5917,
      "force": 5918,
      "However": 5919,
      "Ġimmune": 5920,
      "Ġmentioned": 5921,
      "Ġske": 5922,
      "enny": 5923,
      "asks": 5924,
      "Ġattached": 5925,
      "Ġpackage": 5926,
      "Ġconsumption": 5927,
      "Ġsilver": 5928,
      "Ġreferred": 5929,
      "Ġtraffic": 5930,
      "Ġextremely": 5931,
      "tical": 5932,
      "Ġtied": 5933,
      "Ġwake": 5934,
      "verty": 5935,
      "ĠLear": 5936,
      "Ġanywhere": 5937,
      "Ġ1990": 5938,
      "Ġoccurred": 5939,
      "Ġapart": 5940,
      "Ġlinked": 5941,
      "Ġexactly": 5942,
      "inks": 5943,
      "rient": 5944,
      "ĠLabor": 5945,
      "Ġconvers": 5946,
      "odes": 5947,
      "Ġuncle": 5948,
      "Ġpoverty": 5949,
      "Ġassum": 5950,
      "iox": 5951,
      "Ġradiation": 5952,
      "Ġcombination": 5953,
      "ĠQue": 5954,
      "Ġsplit": 5955,
      "Ġcelebrate": 5956,
      "Ġflexible": 5957,
      "name": 5958,
      "anut": 5959,
      "Ġstro": 5960,
      "Ġstraw": 5961,
      "ĠLook": 5962,
      "Ġalle": 5963,
      "agers": 5964,
      "Ġoverall": 5965,
      "Ġapply": 5966,
      "ĠSpace": 5967,
      "Ġrefused": 5968,
      "Ġchanging": 5969,
      "Ġbreakfast": 5970,
      "Ġtowel": 5971,
      "Ġsamples": 5972,
      "Ġinnov": 5973,
      "Ġdiamond": 5974,
      "Ġmovie": 5975,
      "Ġpor": 5976,
      "ĠMiG": 5977,
      "Ġrandom": 5978,
      "iano": 5979,
      "Ġinvited": 5980,
      "ĠTweet": 5981,
      "Jill": 5982,
      "ini": 5983,
      "ato": 5984,
      "Ġmamm": 5985,
      "Ġweap": 5986,
      "ago": 5987,
      "that": 5988,
      "?\".": 5989,
      "asses": 5990,
      "Ġflour": 5991,
      "Ġsupposed": 5992,
      "Ġexpert": 5993,
      "Ġ70": 5994,
      "cing": 5995,
      "Ġsighed": 5996,
      "Ġisol": 5997,
      "ĠBer": 5998,
      "Ġrac": 5999,
      "Ġcone": 6000,
      "istan": 6001,
      "ĠDem": 6002,
      "ĠElect": 6003,
      "Ġfluffy": 6004,
      "Ġbrothers": 6005,
      "umbled": 6006,
      "Ġmembr": 6007,
      "Ġdescribe": 6008,
      "Ġphoto": 6009,
      "Ġraise": 6010,
      "Ġfrequently": 6011,
      "Ġrecommended": 6012,
      "ca": 6013,
      "mark": 6014,
      "acific": 6015,
      "ĠGreek": 6016,
      "Ġagree": 6017,
      "Ġroar": 6018,
      "Ġamb": 6019,
      "Ġcrow": 6020,
      "Ġreprod": 6021,
      "Ġlands": 6022,
      "ĠConstitution": 6023,
      "ĠCarol": 6024,
      "with": 6025,
      "Ġwire": 6026,
      "Ġbones": 6027,
      "Ġstim": 6028,
      "Ġending": 6029,
      "fl": 6030,
      "onic": 6031,
      "olved": 6032,
      "Ġmere": 6033,
      "Ġboxes": 6034,
      "Ġmuscles": 6035,
      "Ġelection": 6036,
      "Ġelim": 6037,
      "Ġabsor": 6038,
      "Ġdoub": 6039,
      "Ġvirus": 6040,
      "Ġvehicle": 6041,
      "keeper": 6042,
      "Ġir": 6043,
      "inations": 6044,
      "Ġveter": 6045,
      "Ġskipped": 6046,
      "Ġpicks": 6047,
      "ĠChev": 6048,
      "Ġchallenges": 6049,
      "face": 6050,
      "Ġmer": 6051,
      "Ġyarn": 6052,
      "ĠMo": 6053,
      "ĠGre": 6054,
      "Ġnoisy": 6055,
      "ĠOver": 6056,
      "Ġended": 6057,
      "ĠSoviet": 6058,
      "Ġpicking": 6059,
      "Ġsouthern": 6060,
      "Ġfingers": 6061,
      "Ġwrapped": 6062,
      "oa": 6063,
      "vis": 6064,
      "ĠOnce": 6065,
      "Ġastr": 6066,
      "Ġfert": 6067,
      "eles": 6068,
      "ource": 6069,
      "Ġgirls": 6070,
      "owned": 6071,
      "assion": 6072,
      "Ġsword": 6073,
      "Ġattic": 6074,
      "aze": 6075,
      "Ġmarine": 6076,
      "Ġtradition": 6077,
      "west": 6078,
      "atically": 6079,
      "rolet": 6080,
      "ĠDist": 6081,
      "ffee": 6082,
      "lands": 6083,
      "Ġhurts": 6084,
      "Ġresulting": 6085,
      "ĠTechnology": 6086,
      "ares": 6087,
      "pects": 6088,
      "rition": 6089,
      "Ġtour": 6090,
      "Ġnarr": 6091,
      "Ġfinds": 6092,
      "Ġdelay": 6093,
      "Ġenthus": 6094,
      "Ġ90": 6095,
      "Ġfiles": 6096,
      "ealous": 6097,
      "Ġphenomen": 6098,
      "Because": 6099,
      "ST": 6100,
      "night": 6101,
      "ris": 6102,
      "Ġmale": 6103,
      "icit": 6104,
      "arming": 6105,
      "Ġtelling": 6106,
      "Ġdreams": 6107,
      "Ġvolcan": 6108,
      "Ġmicros": 6109,
      "Ġdiscussion": 6110,
      "Jimmy": 6111,
      "yroid": 6112,
      "Ġbud": 6113,
      "Ġboss": 6114,
      "Ġbubbles": 6115,
      "ompl": 6116,
      "amental": 6117,
      "urther": 6118,
      "Ġalert": 6119,
      "abies": 6120,
      "atever": 6121,
      "Ġbackground": 6122,
      "Ġexcess": 6123,
      "Ġlandsc": 6124,
      "Ġdirector": 6125,
      "Ġcopy": 6126,
      "Ġimpressive": 6127,
      "zen": 6128,
      "Ġbake": 6129,
      "Ġbuttons": 6130,
      "Ġprices": 6131,
      "Ġ35": 6132,
      "Ġcats": 6133,
      "Ġmostly": 6134,
      "Ġowners": 6135,
      "Ġreality": 6136,
      "Ġtested": 6137,
      "Ġcharge": 6138,
      "ĠLeo": 6139,
      "Although": 6140,
      "Ġinitial": 6141,
      "Ġmagnet": 6142,
      "ĠRussian": 6143,
      "ĠMexico": 6144,
      "ĠFoundation": 6145,
      "ds": 6146,
      "flower": 6147,
      "orph": 6148,
      "Ġforced": 6149,
      "ĠCancer": 6150,
      "Ġkil": 6151,
      "ĠNav": 6152,
      "Ġentered": 6153,
      "Ġrepeated": 6154,
      "rocod": 6155,
      "Ġjewel": 6156,
      "SA": 6157,
      "pat": 6158,
      "inating": 6159,
      "Ġwing": 6160,
      "Ġfro": 6161,
      "Ġfasc": 6162,
      "isation": 6163,
      "unction": 6164,
      "Ġgoals": 6165,
      "Ġrevealed": 6166,
      "Sue": 6167,
      "Ġ+": 6168,
      "Ġsides": 6169,
      "inter": 6170,
      "Ġexplored": 6171,
      "Ġprocessing": 6172,
      "Ġdivided": 6173,
      "Ġcollabor": 6174,
      "iatric": 6175,
      "Ġcaterpillar": 6176,
      "Em": 6177,
      "ĠRos": 6178,
      "ĠFlorida": 6179,
      ".'": 6180,
      "76": 6181,
      "Sally": 6182,
      "Ġfurn": 6183,
      "Ġpenc": 6184,
      "Ġlatter": 6185,
      "Ġreef": 6186,
      "ĠLake": 6187,
      "romos": 6188,
      "ĠWild": 6189,
      "Ġjelly": 6190,
      "Ġbags": 6191,
      "Ġcolourful": 6192,
      "Ġliquid": 6193,
      "Ġenvelope": 6194,
      "pd": 6195,
      "rum": 6196,
      "Ġded": 6197,
      "ĠTwo": 6198,
      "ĠPo": 6199,
      "Ġjam": 6200,
      "ĠGood": 6201,
      "Ġunit": 6202,
      "Ġlarg": 6203,
      "Ġprotected": 6204,
      "Ġaircraft": 6205,
      "ĠFrank": 6206,
      "Ġjobs": 6207,
      "Ġsplashed": 6208,
      "Ġprinciples": 6209,
      "Ġdegrees": 6210,
      "Ġcrawled": 6211,
      "Ġhabitat": 6212,
      "atabase": 6213,
      "39": 6214,
      "born": 6215,
      "burg": 6216,
      "cest": 6217,
      "arl": 6218,
      "ĠHun": 6219,
      "ĠMiddle": 6220,
      "change": 6221,
      "Ġuniform": 6222,
      "Ġsquee": 6223,
      "Ġparrot": 6224,
      "Ġiniti": 6225,
      "Ġpreviously": 6226,
      "ecutive": 6227,
      "ĠMars": 6228,
      "Ġjealous": 6229,
      "ocal": 6230,
      "aven": 6231,
      "Ġseeing": 6232,
      "Ġpeanut": 6233,
      "Ġ31": 6234,
      "Ġbeauty": 6235,
      "Ġinvolves": 6236,
      "Ġauthority": 6237,
      "Ġamounts": 6238,
      "Ġregarding": 6239,
      "Ġexperienced": 6240,
      "ĠLibr": 6241,
      "umn": 6242,
      "Ġconstitution": 6243,
      "ĠFederal": 6244,
      "Ġintellect": 6245,
      "Ġincome": 6246,
      "Ġcoffee": 6247,
      "Ġdepos": 6248,
      "ĠForce": 6249,
      "Ġsumm": 6250,
      "ĠIII": 6251,
      "Ġsample": 6252,
      "Mummy": 6253,
      "SI": 6254,
      "Ġber": 6255,
      "Ġfirm": 6256,
      "imer": 6257,
      "adian": 6258,
      "etts": 6259,
      "ĠMont": 6260,
      "Ġexperts": 6261,
      "Ġguide": 6262,
      "Ġrecognize": 6263,
      "Ġreligion": 6264,
      "Ġinstitutions": 6265,
      "Ġrenew": 6266,
      "idelines": 6267,
      "comm": 6268,
      "arly": 6269,
      "ĠSal": 6270,
      "igen": 6271,
      "achus": 6272,
      "Ġflute": 6273,
      "Ġ1998": 6274,
      "Ġcombined": 6275,
      "Ġpillow": 6276,
      "Ġmonitoring": 6277,
      "Sorry": 6278,
      "Ġsudden": 6279,
      "Ġpra": 6280,
      "Ġinternal": 6281,
      "Ġnurse": 6282,
      "ĠSub": 6283,
      "Ġlie": 6284,
      "ĠEconom": 6285,
      "Ġsmelly": 6286,
      "ferences": 6287,
      "Ġuniverse": 6288,
      "Ġlazy": 6289,
      "ĠKore": 6290,
      "ĠStat": 6291,
      "Ġrepair": 6292,
      "Ġdiagnosis": 6293,
      "Ġadvantage": 6294,
      "Ġobedient": 6295,
      "Ġfoolish": 6296,
      "Dr": 6297,
      "Most": 6298,
      "RO": 6299,
      "Ġpair": 6300,
      "urous": 6301,
      "Ġcontem": 6302,
      "Ġparties": 6303,
      "Ġsurre": 6304,
      "Ġgrandpa": 6305,
      "ĠAdm": 6306,
      "Ġviolence": 6307,
      "Ġinjury": 6308,
      "cked": 6309,
      "lishing": 6310,
      "Ġpie": 6311,
      "ilit": 6312,
      "Ġnone": 6313,
      "ĠPenn": 6314,
      "ĠNet": 6315,
      "Ġperman": 6316,
      "Ġjustice": 6317,
      "Ġtechnique": 6318,
      "Ġelement": 6319,
      "ĠCommittee": 6320,
      "ĠCentral": 6321,
      "Ġfailed": 6322,
      "Ġoptions": 6323,
      "Ġburning": 6324,
      "EL": 6325,
      "bird": 6326,
      "yn": 6327,
      "Ġtro": 6328,
      "isis": 6329,
      "isters": 6330,
      "Ġnine": 6331,
      "urance": 6332,
      "Ġcontaining": 6333,
      "pring": 6334,
      "Ġcontinues": 6335,
      "ĠColumb": 6336,
      "Ġbiological": 6337,
      "Ġconnect": 6338,
      "Ġfamiliar": 6339,
      "which": 6340,
      "ĠCatholic": 6341,
      "Ġlargely": 6342,
      "49": 6343,
      "apped": 6344,
      "Ã¡": 6345,
      "Ġsorts": 6346,
      "Ġwagon": 6347,
      "Ġpup": 6348,
      "ilty": 6349,
      "ĠCap": 6350,
      "emo": 6351,
      "Ġpoison": 6352,
      "Ġ185": 6353,
      "Ġminute": 6354,
      "ĠAtlant": 6355,
      "Ġfarmers": 6356,
      "Ġsearching": 6357,
      "Ġabsol": 6358,
      "Ġintelligent": 6359,
      "'.": 6360,
      "care": 6361,
      "hin": 6362,
      "itage": 6363,
      "Ġfib": 6364,
      "Ġdie": 6365,
      "Ġscen": 6366,
      "Ġunf": 6367,
      "Ġrealised": 6368,
      "Ġsubstant": 6369,
      "Ġcreatures": 6370,
      "Ġsupported": 6371,
      "ĠOrgan": 6372,
      "Ġconnected": 6373,
      "Ġattractive": 6374,
      "ĠLouis": 6375,
      "Ġberries": 6376,
      "During": 6377,
      "cut": 6378,
      "chers": 6379,
      "lusion": 6380,
      "rate": 6381,
      "astern": 6382,
      "Ġconvent": 6383,
      "ĠPri": 6384,
      "Ġclay": 6385,
      "ĠRights": 6386,
      "Ġmanage": 6387,
      "Ġyours": 6388,
      "ĠUK": 6389,
      "Ġtwenty": 6390,
      "Ġobvious": 6391,
      "Ġaccompl": 6392,
      "Ġguilty": 6393,
      "Ġpromote": 6394,
      "Ġgovernments": 6395,
      "Ġdependable": 6396,
      "Ġtube": 6397,
      "iveness": 6398,
      "achusetts": 6399,
      "100": 6400,
      "AD": 6401,
      "Billy": 6402,
      "lar": 6403,
      "Ġwestern": 6404,
      "Ġwolf": 6405,
      "Ġok": 6406,
      "ulating": 6407,
      "Ġjur": 6408,
      "Ġworse": 6409,
      "Ġdecisions": 6410,
      "Ġfeelings": 6411,
      "Ġreplaced": 6412,
      "Ġadventurous": 6413,
      "Ġoperating": 6414,
      "Ġapolog": 6415,
      "37": 6416,
      "48": 6417,
      "Ġcra": 6418,
      "Ġfier": 6419,
      "ĠSl": 6420,
      "agle": 6421,
      "Ġoutput": 6422,
      "aks": 6423,
      "Ġprefer": 6424,
      "Ġflat": 6425,
      "Ġballoons": 6426,
      "Ġdetect": 6427,
      "rolog": 6428,
      "Ġsatis": 6429,
      "Ġsignificantly": 6430,
      "Ġlifted": 6431,
      "Ġmosqu": 6432,
      "ĠAcademy": 6433,
      "AP": 6434,
      "More": 6435,
      "nce": 6436,
      "rad": 6437,
      "Ġhook": 6438,
      "lements": 6439,
      "ĠBel": 6440,
      "ĠBoth": 6441,
      "ĠCat": 6442,
      "Ġsyndrome": 6443,
      "Ġkindness": 6444,
      "Ġdiscrim": 6445,
      "exp": 6446,
      "Ġcircum": 6447,
      "Ġignor": 6448,
      "Ġutil": 6449,
      "Ġturtle": 6450,
      "Ġhusband": 6451,
      "itors": 6452,
      "omach": 6453,
      "acht": 6454,
      "ĠAN": 6455,
      "Ġplays": 6456,
      "ĠFood": 6457,
      "ĠNatural": 6458,
      "Ġcontribut": 6459,
      "Ġdesk": 6460,
      "Ġconsists": 6461,
      "Ġallowing": 6462,
      "Ġfalling": 6463,
      "bra": 6464,
      "Ġcomprehens": 6465,
      "Ġsupplies": 6466,
      "Ġjoke": 6467,
      "Ġdemocr": 6468,
      "Ġdiscussed": 6469,
      "Ġrequirements": 6470,
      "ĠJapanese": 6471,
      "ĠOffice": 6472,
      "ĠSusie": 6473,
      "Not": 6474,
      "uke": 6475,
      "Ġhats": 6476,
      "Ġdizzy": 6477,
      "Ġthread": 6478,
      "Ġaspects": 6479,
      "Ġshoe": 6480,
      "umin": 6481,
      "ĠPers": 6482,
      "osh": 6483,
      "Ġjack": 6484,
      "Ġclub": 6485,
      "Ġtwig": 6486,
      "ĠScient": 6487,
      "Ġsufficient": 6488,
      "Ġjudge": 6489,
      "Ġpollution": 6490,
      "Ġstrategies": 6491,
      "Amy": 6492,
      "According": 6493,
      "Other": 6494,
      "Ġdial": 6495,
      "Ġdull": 6496,
      "Ġvast": 6497,
      "Ġextent": 6498,
      "Ġextract": 6499,
      "Ġsleeping": 6500,
      "Ġauthorities": 6501,
      "Ġinput": 6502,
      "Ġweird": 6503,
      "Ġmoms": 6504,
      "ĠPacific": 6505,
      "Ġstored": 6506,
      "Ġtrials": 6507,
      "Ġvolume": 6508,
      "Ġearthqu": 6509,
      "Ġindicate": 6510,
      "Ġdefinition": 6511,
      "Ã¶": 6512,
      "ita": 6513,
      "Ġcrew": 6514,
      "Ġcrocod": 6515,
      "ĠTur": 6516,
      "idity": 6517,
      "rif": 6518,
      "ulum": 6519,
      "ĠRose": 6520,
      "ĠGroup": 6521,
      "Ġpee": 6522,
      "Ġopens": 6523,
      "Ġdram": 6524,
      "ĠAlice": 6525,
      "Ġdocuments": 6526,
      "Ġcharacteristics": 6527,
      "Ġparticipants": 6528,
      "Ġpowers": 6529,
      "Ġmaximum": 6530,
      "Ġslightly": 6531,
      "ii": 6532,
      "Ġtitle": 6533,
      "Ġsen": 6534,
      "uration": 6535,
      "ĠPet": 6536,
      "Ġtrunk": 6537,
      "Ġintended": 6538,
      "Ġbloom": 6539,
      "hesis": 6540,
      "Ġcenturies": 6541,
      "Ġ1995": 6542,
      "Ġdelicate": 6543,
      "Ġkingdom": 6544,
      "Ġbanana": 6545,
      "Ġconcerned": 6546,
      "Ġopinion": 6547,
      "Ġfavourite": 6548,
      "Ġterrible": 6549,
      "down": 6550,
      "point": 6551,
      "Ġbarn": 6552,
      "Ġsem": 6553,
      "Ġtrick": 6554,
      "Ġtrail": 6555,
      "Ġagreement": 6556,
      "Ġimpossible": 6557,
      "Ġunits": 6558,
      "oby": 6559,
      "Ġcounting": 6560,
      "Ġadding": 6561,
      "Ġpresents": 6562,
      "Ġ45": 6563,
      "Ġviews": 6564,
      "osystem": 6565,
      "Ġpersistent": 6566,
      "Ġacademic": 6567,
      "eros": 6568,
      "alle": 6569,
      "ĠBet": 6570,
      "Ġsheet": 6571,
      "Ġshake": 6572,
      "Ġshark": 6573,
      "ĠRex": 6574,
      "ĠUs": 6575,
      "Ġreducing": 6576,
      "ĠReview": 6577,
      "going": 6578,
      "Ġsoldiers": 6579,
      "Ġwarned": 6580,
      "Ġerror": 6581,
      "85": 6582,
      "OT": 6583,
      "ville": 6584,
      "Ġsin": 6585,
      "Ġcact": 6586,
      "Ġnan": 6587,
      "irp": 6588,
      "olars": 6589,
      "Ġkick": 6590,
      "Ġextend": 6591,
      "ĠConn": 6592,
      "engu": 6593,
      "Ġpermission": 6594,
      "Ġcycle": 6595,
      "Ġsubstance": 6596,
      "amber": 6597,
      "Ġstomach": 6598,
      "ĠBible": 6599,
      "Ġchase": 6600,
      "Ġexcell": 6601,
      "phone": 6602,
      "ĠArmy": 6603,
      "Ġenjoying": 6604,
      "Ġclaims": 6605,
      "Ġrelationships": 6606,
      "Ġhundreds": 6607,
      "ĠTweety": 6608,
      "dge": 6609,
      "anes": 6610,
      "Ġdreamed": 6611,
      "Ġstable": 6612,
      "ĠWind": 6613,
      "usting": 6614,
      "Ġmanner": 6615,
      "Ġotherwise": 6616,
      "Ġexclaimed": 6617,
      "ĠKenn": 6618,
      "Ġreduction": 6619,
      "Ġfright": 6620,
      "uality": 6621,
      "Ġheads": 6622,
      "Ġrestaur": 6623,
      "ĠPeace": 6624,
      "Ġprimarily": 6625,
      "bed": 6626,
      "hett": 6627,
      "Ġbump": 6628,
      "Ġmaster": 6629,
      "Ġinvent": 6630,
      "icing": 6631,
      "Ġwashed": 6632,
      "Ġreward": 6633,
      "Ġreform": 6634,
      "Ġbeet": 6635,
      "berries": 6636,
      "lets": 6637,
      "Ġ1997": 6638,
      "Ġboats": 6639,
      "Ġwildlife": 6640,
      "poses": 6641,
      "Ġtelevision": 6642,
      "Ġelectrical": 6643,
      "ka": 6644,
      "Ġfal": 6645,
      "Ġhang": 6646,
      "asp": 6647,
      "Ġghost": 6648,
      "state": 6649,
      "Ġstubb": 6650,
      "Ġcompassion": 6651,
      "ĠOp": 6652,
      "inson": 6653,
      "ception": 6654,
      "Ġinterests": 6655,
      "ĠConf": 6656,
      "Ġfundamental": 6657,
      "ĠCorps": 6658,
      "Ġincorpor": 6659,
      "noon": 6660,
      "Ġhall": 6661,
      "ania": 6662,
      "Ġmice": 6663,
      "Ġlicked": 6664,
      "keys": 6665,
      "ĠPsych": 6666,
      "osite": 6667,
      "Ġcommit": 6668,
      "Ġevening": 6669,
      "Ġsunflower": 6670,
      "Ġcrayon": 6671,
      "89": 6672,
      "Ġfan": 6673,
      "Ġyog": 6674,
      "ĠDi": 6675,
      "oston": 6676,
      "berry": 6677,
      "Ġuncom": 6678,
      "enses": 6679,
      "Ġinfections": 6680,
      "Ġ300": 6681,
      "Ġdespite": 6682,
      "Ġdescend": 6683,
      "Ġsnee": 6684,
      "Ġlouder": 6685,
      "Ġsounded": 6686,
      "Ġtechnical": 6687,
      "Ġapproaches": 6688,
      "Ġimagine": 6689,
      "ĠHistor": 6690,
      "Ġrevolution": 6691,
      "Ġencourage": 6692,
      "Ġangel": 6693,
      "Ġextreme": 6694,
      "Ġbegins": 6695,
      "ĠMassachusetts": 6696,
      "Ġgalax": 6697,
      "ĠChevrolet": 6698,
      "col": 6699,
      "Ġ<": 6700,
      "itar": 6701,
      "ads": 6702,
      "amil": 6703,
      "opard": 6704,
      "Ġconver": 6705,
      "resents": 6706,
      "Ġthanks": 6707,
      "Ġswitch": 6708,
      "Ġconsult": 6709,
      "Ġclasses": 6710,
      "Ġequival": 6711,
      "Ġcomputers": 6712,
      "Ġcollar": 6713,
      "ĠCompany": 6714,
      "ĠRussia": 6715,
      "Ġsequence": 6716,
      "ĠMichael": 6717,
      "ructure": 6718,
      "bal": 6719,
      "Äģ": 6720,
      "Ġoct": 6721,
      "Ġbin": 6722,
      "Ġhay": 6723,
      "Ġgro": 6724,
      "ĠSum": 6725,
      "ĠEll": 6726,
      "rawn": 6727,
      "Ġthoughtful": 6728,
      "Ġcapable": 6729,
      "Ġhopes": 6730,
      "ĠWho": 6731,
      "Ġimpacts": 6732,
      "Ġcheerful": 6733,
      "31": 6734,
      "Im": 6735,
      "anish": 6736,
      "eless": 6737,
      "Ġsauce": 6738,
      "ĠLatin": 6739,
      "ĠWord": 6740,
      "ources": 6741,
      "Ġcollege": 6742,
      "Ġgoods": 6743,
      "ountain": 6744,
      "Ġdescription": 6745,
      "Ġmovements": 6746,
      "Joe": 6747,
      "Ġoriginally": 6748,
      "46": 6749,
      "bec": 6750,
      "field": 6751,
      "sen": 6752,
      "Ġsector": 6753,
      "Ġcore": 6754,
      "anna": 6755,
      "orial": 6756,
      "ĠST": 6757,
      "Ġbears": 6758,
      "standing": 6759,
      "ĠBot": 6760,
      "Ġkm": 6761,
      "ĠThose": 6762,
      "âĢĿ.": 6763,
      "Ġexplan": 6764,
      "Ġslipped": 6765,
      "Ġhighlight": 6766,
      "Ġtopics": 6767,
      "Ġfacilities": 6768,
      "Ġportion": 6769,
      "Ġgrav": 6770,
      "Ġfragile": 6771,
      "ĠVietnam": 6772,
      "hetti": 6773,
      "Ġstubborn": 6774,
      "DF": 6775,
      "itter": 6776,
      "Ġpants": 6777,
      "ota": 6778,
      "ĠHall": 6779,
      "ĠLike": 6780,
      "illing": 6781,
      "aghetti": 6782,
      "Ġclap": 6783,
      "ĠRad": 6784,
      "ĠGal": 6785,
      "Ġenzy": 6786,
      "Ġmoist": 6787,
      "example": 6788,
      "Ġexistence": 6789,
      "Ġargue": 6790,
      "Ġresponsibility": 6791,
      "ĠReport": 6792,
      "Ġengineering": 6793,
      "Ġconcepts": 6794,
      "Ġpregnancy": 6795,
      "LE": 6796,
      "Today": 6797,
      "Ġwww": 6798,
      "Ġnit": 6799,
      "heric": 6800,
      "Ġtrump": 6801,
      "ivation": 6802,
      "Ġenemy": 6803,
      "Ġrode": 6804,
      "Ġunless": 6805,
      "hyth": 6806,
      "Ġcontinuous": 6807,
      "Ġexperiments": 6808,
      "sembly": 6809,
      "clopedia": 6810,
      "gment": 6811,
      "greg": 6812,
      "Ġbrief": 6813,
      "Ġpure": 6814,
      "Ġstup": 6815,
      "ĠHeb": 6816,
      "ĠLong": 6817,
      "Ġaren": 6818,
      "ĠJer": 6819,
      "ĠDise": 6820,
      "Ġrecip": 6821,
      "Ġcooler": 6822,
      "Ġidentity": 6823,
      "Ġillustr": 6824,
      "Ġdomestic": 6825,
      "den": 6826,
      "was": 6827,
      "Ġgall": 6828,
      "Ġdove": 6829,
      "ĠPub": 6830,
      "ĠTimes": 6831,
      "Ġdisg": 6832,
      "Ġtwice": 6833,
      "Ġapparent": 6834,
      "Ġorganisms": 6835,
      "Ġlanguages": 6836,
      "Ġsettled": 6837,
      "Ġdouble": 6838,
      "Ġmanufacture": 6839,
      "Ġcomponents": 6840,
      "Ġagricultural": 6841,
      "47": 6842,
      "Des": 6843,
      "wood": 6844,
      "isco": 6845,
      "omed": 6846,
      "ĠSandy": 6847,
      "etics": 6848,
      "Ġspaghetti": 6849,
      "ĠPete": 6850,
      "ivered": 6851,
      "Ġturning": 6852,
      "Ġeffectively": 6853,
      "Ġbeds": 6854,
      "Ġstudying": 6855,
      "ĠColor": 6856,
      "Ġ1980": 6857,
      "Ġprofession": 6858,
      "Ġshelter": 6859,
      "Ġstruggle": 6860,
      "Our": 6861,
      "ding": 6862,
      "Ġicy": 6863,
      "itud": 6864,
      "atform": 6865,
      "Ġfed": 6866,
      "ora": 6867,
      "Ġhem": 6868,
      "igration": 6869,
      "ĠCle": 6870,
      "Ġspell": 6871,
      "Ġallerg": 6872,
      "angers": 6873,
      "Ġgraph": 6874,
      "Ġbrace": 6875,
      "ĠKim": 6876,
      "Ġflight": 6877,
      "ĠVict": 6878,
      "Ġafternoon": 6879,
      "Ġdrain": 6880,
      "Ġmoves": 6881,
      "Ġorganize": 6882,
      "Ġadvanced": 6883,
      "Ġspecifically": 6884,
      "Ġfunding": 6885,
      "Ġmassive": 6886,
      "ĠMuslim": 6887,
      "Ġsurrounding": 6888,
      "Ġrapidly": 6889,
      "Con": 6890,
      "last": 6891,
      "itness": 6892,
      "Ġpestic": 6893,
      "oln": 6894,
      "Ġrug": 6895,
      "Ġspac": 6896,
      "Ġscare": 6897,
      "ometer": 6898,
      "Ġcontrolled": 6899,
      "Ġneedle": 6900,
      "Ġsynt": 6901,
      "Ġindeed": 6902,
      "Ġdistingu": 6903,
      "Ġformation": 6904,
      "Ġinsect": 6905,
      "Ġjuicy": 6906,
      "Ġreminded": 6907,
      "Grand": 6908,
      "500": 6909,
      "First": 6910,
      "mas": 6911,
      "Ġaunt": 6912,
      "Ġwis": 6913,
      "Ġborder": 6914,
      "Ġcurt": 6915,
      "Ġharsh": 6916,
      "ĠWell": 6917,
      "ĠDiv": 6918,
      "ĠDef": 6919,
      "ĠElla": 6920,
      "ogue": 6921,
      "Ġfeature": 6922,
      "ĠWhenever": 6923,
      "Ġreplace": 6924,
      "Ġtopic": 6925,
      "Ġ1993": 6926,
      "Ġpractical": 6927,
      "Ġeastern": 6928,
      "Ġappearance": 6929,
      "bles": 6930,
      "Ġtiger": 6931,
      "inent": 6932,
      "Ġhorm": 6933,
      "Ġpiano": 6934,
      "Ġheight": 6935,
      "ĠLee": 6936,
      "Ġwhales": 6937,
      "Ġancest": 6938,
      "ifies": 6939,
      "Ġvac": 6940,
      "Ġtract": 6941,
      "reatment": 6942,
      "Ġdisag": 6943,
      "Ġrepresents": 6944,
      "hyd": 6945,
      "Ġissued": 6946,
      "Ġfigures": 6947,
      "Ġwarning": 6948,
      "hetic": 6949,
      "Ġsustainable": 6950,
      "Le": 6951,
      "ya": 6952,
      "yer": 6953,
      "rep": 6954,
      "ĠAD": 6955,
      "ĠDucky": 6956,
      "Ġfriendship": 6957,
      "Ġwrap": 6958,
      "Ġlocked": 6959,
      "Ġpromot": 6960,
      "Ġleads": 6961,
      "ĠBobby": 6962,
      "Ġpurposes": 6963,
      "Ġimagined": 6964,
      "Ġsubjects": 6965,
      "Ġera": 6966,
      "Ġordered": 6967,
      "Ġcompetition": 6968,
      "Ġdynam": 6969,
      "Ġsatisf": 6970,
      "Ġcactus": 6971,
      ".]": 6972,
      "Your": 6973,
      "zer": 6974,
      "Ġgum": 6975,
      "ĠSa": 6976,
      "ĠBella": 6977,
      "Ġproport": 6978,
      "ĠAnother": 6979,
      "Ġsne": 6980,
      "Ġtransform": 6981,
      "Ġfactory": 6982,
      "Ġopening": 6983,
      "Ġadvoc": 6984,
      "Ġindependence": 6985,
      "ĠSecurity": 6986,
      "Ġspoiled": 6987,
      "Ġlaboratory": 6988,
      "lers": 6989,
      "asures": 6990,
      "oto": 6991,
      "amew": 6992,
      "ĠMa": 6993,
      "agues": 6994,
      "Ġliver": 6995,
      "Ġgoat": 6996,
      "Ġcourage": 6997,
      "Ġstops": 6998,
      "Ġadvance": 6999,
      "Ġnuts": 7000,
      "Ġdetailed": 7001,
      "Ġdelighted": 7002,
      "Ġcredit": 7003,
      "Ġpoured": 7004,
      "Ġtroops": 7005,
      "Ġsle": 7006,
      "Ġthirst": 7007,
      "Ġthunder": 7008,
      "Ġumb": 7009,
      "roat": 7010,
      "Ġstumbled": 7011,
      "rav": 7012,
      "Ġcritic": 7013,
      "Ġsnugg": 7014,
      "Ġformal": 7015,
      "ĠArctic": 7016,
      "Ġinsects": 7017,
      "Ġelectronic": 7018,
      "Ġmarked": 7019,
      "Ġlistening": 7020,
      "Ġwarming": 7021,
      "Ġtowers": 7022,
      "Ġfootball": 7023,
      "Ġrelevant": 7024,
      "65": 7025,
      "inity": 7026,
      "iture": 7027,
      "Ġdut": 7028,
      "ĠSou": 7029,
      "ĠBas": 7030,
      "ĠMummy": 7031,
      "ĠEr": 7032,
      "ĠOut": 7033,
      "ubble": 7034,
      "ieties": 7035,
      "Ġbushes": 7036,
      "Ġguitar": 7037,
      "Ġpracticed": 7038,
      "attered": 7039,
      "Ġ1970": 7040,
      "Ġspinning": 7041,
      "Ġshells": 7042,
      "Ġassessment": 7043,
      "Ġcooper": 7044,
      "Ġpirate": 7045,
      "Ġanxious": 7046,
      "CD": 7047,
      "las": 7048,
      "Ġbent": 7049,
      "aroo": 7050,
      "ĠNat": 7051,
      "ĠGive": 7052,
      "Ġintr": 7053,
      "Ġagency": 7054,
      "Ġpeb": 7055,
      "Ġbehave": 7056,
      "Ġdepth": 7057,
      "incoln": 7058,
      "Ġbutterflies": 7059,
      "Ġlimits": 7060,
      "ĠMaria": 7061,
      "ĠLibrary": 7062,
      "HO": 7063,
      "Ind": 7064,
      "ki": 7065,
      "inction": 7066,
      "Ġtoil": 7067,
      "Ġholid": 7068,
      "stream": 7069,
      "ĠMP": 7070,
      "unched": 7071,
      "Ġneur": 7072,
      "ĠJose": 7073,
      "angle": 7074,
      "Ġphase": 7075,
      "Ġgreatest": 7076,
      "Ġfacts": 7077,
      "Ġmillions": 7078,
      "ĠEmpire": 7079,
      "Ġprinciple": 7080,
      "Ġpumpkin": 7081,
      "Ġadopted": 7082,
      "Ġprocedure": 7083,
      "UN": 7084,
      "corn": 7085,
      "ss": 7086,
      "Ġpit": 7087,
      "ĠHave": 7088,
      "ĠPower": 7089,
      "Ġcomet": 7090,
      "Ġdefe": 7091,
      "Ġlaid": 7092,
      "Ġcrisis": 7093,
      "Ġcandle": 7094,
      "ifying": 7095,
      "Ġhoriz": 7096,
      "Ġcouple": 7097,
      "Ġcompetitive": 7098,
      "Ġthousand": 7099,
      "Ġgraceful": 7100,
      "Ġlandscape": 7101,
      "02": 7102,
      "03": 7103,
      "normal": 7104,
      "pan": 7105,
      "Ġtap": 7106,
      "Ġluck": 7107,
      "ĠSuch": 7108,
      "ĠBoston": 7109,
      "Ġwhatever": 7110,
      "Ġplayful": 7111,
      "Ġlies": 7112,
      "Ġspilled": 7113,
      "osen": 7114,
      "Ġsched": 7115,
      "ĠStand": 7116,
      "Ġacts": 7117,
      "Ġrelation": 7118,
      "Ġwrites": 7119,
      "Ġdrag": 7120,
      "Ġmedium": 7121,
      "bridge": 7122,
      "Ġresulted": 7123,
      "Ġpossess": 7124,
      "Ġbrightly": 7125,
      "Ġbreaks": 7126,
      "Ġargument": 7127,
      "Ġstrike": 7128,
      "Ġpenny": 7129,
      "Ġmolecules": 7130,
      "Ġwiped": 7131,
      "Ġuncomfort": 7132,
      "ION": 7133,
      "Ġcudd": 7134,
      "Ġdatabase": 7135,
      "alian": 7136,
      "ĠMike": 7137,
      "umes": 7138,
      "ĠOx": 7139,
      "Ġstranger": 7140,
      "Ġattacks": 7141,
      "Ġloudly": 7142,
      "ĠSciences": 7143,
      "Ġrising": 7144,
      "Ġprocedures": 7145,
      "long": 7146,
      "inic": 7147,
      "Ġstairs": 7148,
      "antly": 7149,
      "apa": 7150,
      "active": 7151,
      "ĠInf": 7152,
      "Ġpole": 7153,
      "ancing": 7154,
      "Ġlightning": 7155,
      "Ġorganic": 7156,
      "Ġoccasion": 7157,
      "Ġdeeper": 7158,
      "Ġprize": 7159,
      "Ġcertainly": 7160,
      "Ġconcerns": 7161,
      "Ġencouraged": 7162,
      "Ġcocoa": 7163,
      "Ġlatest": 7164,
      "Ġstupid": 7165,
      "Ġ>": 7166,
      "Ġdrought": 7167,
      "Ġstated": 7168,
      "Ġfork": 7169,
      "Ġshade": 7170,
      "Ġtrap": 7171,
      "angaroo": 7172,
      "Ġlaunch": 7173,
      "Ġphr": 7174,
      "lete": 7175,
      "Ġparticles": 7176,
      "Ġsuffer": 7177,
      "Ġemployment": 7178,
      "Ġselected": 7179,
      "unteers": 7180,
      "05": 7181,
      "88": 7182,
      "Pe": 7183,
      "Will": 7184,
      "cons": 7185,
      "gle": 7186,
      "look": 7187,
      "Ġrib": 7188,
      "Ġfought": 7189,
      "Ġhose": 7190,
      "anas": 7191,
      "ston": 7192,
      "Ġstove": 7193,
      "Ġalive": 7194,
      "ĠCa": 7195,
      "opus": 7196,
      "ĠNature": 7197,
      "Ġadapt": 7198,
      "ava": 7199,
      "Ġuniversity": 7200,
      "Ġcrick": 7201,
      "athy": 7202,
      "Ġexperiences": 7203,
      "stein": 7204,
      "Ġrubbed": 7205,
      "Ġfierce": 7206,
      "HA": 7207,
      "Ġtummy": 7208,
      "reme": 7209,
      "Ġfountain": 7210,
      "Ġgor": 7211,
      "Ġgoose": 7212,
      "una": 7213,
      "Ġshield": 7214,
      "Ġexternal": 7215,
      "inding": 7216,
      "Ġclick": 7217,
      "usted": 7218,
      "Ġrecon": 7219,
      "Ġexplains": 7220,
      "Ġhousehold": 7221,
      "azz": 7222,
      "Ġdiscipl": 7223,
      "Ġsubsequ": 7224,
      "Ġhumble": 7225,
      "Ġformat": 7226,
      "Ġelected": 7227,
      "Ġpossibility": 7228,
      "Ġnormally": 7229,
      "Ġstrip": 7230,
      "while": 7231,
      "ĠSecond": 7232,
      "Ġcrops": 7233,
      "Ġmembrane": 7234,
      "34": 7235,
      "ga": 7236,
      "erving": 7237,
      "Ġpengu": 7238,
      "Ġyacht": 7239,
      "Ġrural": 7240,
      "Ġkicked": 7241,
      "ĠWr": 7242,
      "Ġsomewhere": 7243,
      "Ġwilling": 7244,
      "Ġinfant": 7245,
      "Ġexcitedly": 7246,
      "Ġpoet": 7247,
      "Ġexpressed": 7248,
      "Ġefficiency": 7249,
      "Ġpolitics": 7250,
      "Ġminimum": 7251,
      "Ġplanned": 7252,
      "Ġzero": 7253,
      "Ġinsp": 7254,
      "Ġlayers": 7255,
      "Ġperiods": 7256,
      "ĠSea": 7257,
      "Ġhyper": 7258,
      "Ġincreasingly": 7259,
      "Ġtorn": 7260,
      "Ġfossil": 7261,
      "Ġintellectual": 7262,
      "itan": 7263,
      "ented": 7264,
      "ĠIll": 7265,
      "Ġwhisp": 7266,
      "Ġrail": 7267,
      "htt": 7268,
      "Ġneu": 7269,
      "Ġsports": 7270,
      "ĠPost": 7271,
      "Ġprohib": 7272,
      "Ġvel": 7273,
      "Ġdecline": 7274,
      "Ġpoem": 7275,
      "ĠBobo": 7276,
      "Ġpurs": 7277,
      "Ġhung": 7278,
      "ercury": 7279,
      "Ġofficer": 7280,
      "ĠSecret": 7281,
      "Ġconcentration": 7282,
      "Ġharvest": 7283,
      "Ġconsequences": 7284,
      "Ġnewspaper": 7285,
      "55": 7286,
      "EM": 7287,
      "itable": 7288,
      "Ġpour": 7289,
      "Ġgym": 7290,
      "uted": 7291,
      "Ġbeak": 7292,
      "rob": 7293,
      "Ġrushed": 7294,
      "Ġspun": 7295,
      "Ġspending": 7296,
      "Ġdeaf": 7297,
      "Ġsunlight": 7298,
      "Ġsignal": 7299,
      "ĠYet": 7300,
      "Ġmagazine": 7301,
      "Ġmainly": 7302,
      "Ġrivers": 7303,
      "Ġstatue": 7304,
      "Ġdreaming": 7305,
      "Ġfrequency": 7306,
      "ĠStudies": 7307,
      "ĠStudents": 7308,
      "ING": 7309,
      "Ġphysician": 7310,
      "Ġsediment": 7311,
      "ĠHebrew": 7312,
      "Ġuncomfortable": 7313,
      "Gen": 7314,
      "no": 7315,
      "tes": 7316,
      "Ġtear": 7317,
      "Ġaer": 7318,
      "alination": 7319,
      "Ġnarrow": 7320,
      "Ġreject": 7321,
      "ĠBig": 7322,
      "Ġshone": 7323,
      "Ġneither": 7324,
      "Ġkangaroo": 7325,
      "Ġseal": 7326,
      "ĠWork": 7327,
      "ĠRo": 7328,
      "ĠStr": 7329,
      "Ġgreatly": 7330,
      "ĠGrandpa": 7331,
      "Ġcelebrated": 7332,
      "Ġbounce": 7333,
      "Ġvehicles": 7334,
      "Ġpencil": 7335,
      "allel": 7336,
      "TM": 7337,
      "Ġtasks": 7338,
      "heast": 7339,
      "Ġsink": 7340,
      "Ġpine": 7341,
      "Ġdough": 7342,
      "amily": 7343,
      "ĠAgr": 7344,
      "Ġplatform": 7345,
      "Ġcomment": 7346,
      "Ġchann": 7347,
      "Ġdishes": 7348,
      "Ġshouldn": 7349,
      "ĠSpanish": 7350,
      "Ġbadly": 7351,
      "Ġtypical": 7352,
      "ĠAtt": 7353,
      "iodiversity": 7354,
      "Ġpunish": 7355,
      "IA": 7356,
      "RC": 7357,
      "hist": 7358,
      "Ġot": 7359,
      "Ġmigr": 7360,
      "Ġnosy": 7361,
      "Ġraced": 7362,
      "Ġspaces": 7363,
      "Ġvul": 7364,
      "ĠDave": 7365,
      "Ġcharming": 7366,
      "Ġchosen": 7367,
      "ĠChic": 7368,
      "Ġproducing": 7369,
      "ÅĵLet": 7370,
      "Ġarts": 7371,
      "Ġmatters": 7372,
      "Another": 7373,
      "Ġpassing": 7374,
      "Ġsteel": 7375,
      "Ġcontrols": 7376,
      "Ġlabel": 7377,
      "Ġprevention": 7378,
      "ĠNext": 7379,
      "Ġfocused": 7380,
      "Ġpregnant": 7381,
      "Ġtrumpet": 7382,
      "Ġbracelet": 7383,
      "amework": 7384,
      "74": 7385,
      "fall": 7386,
      "wr": 7387,
      "erable": 7388,
      "Ġgem": 7389,
      "otic": 7390,
      "ĠHelp": 7391,
      "ĠMac": 7392,
      "umsy": 7393,
      "ĠOl": 7394,
      "ĠOcean": 7395,
      "Ġaccel": 7396,
      "Ġinstall": 7397,
      "Ġplanets": 7398,
      "Ġmarry": 7399,
      "Ġadmired": 7400,
      "Ġdisappear": 7401,
      "Ġignored": 7402,
      "Ġsurvive": 7403,
      "Ġpowder": 7404,
      "Ġinstructions": 7405,
      "Ġrescue": 7406,
      "Ġdolphin": 7407,
      "Ġignorant": 7408,
      ":||": 7409,
      "such": 7410,
      "Ġ#": 7411,
      "ecraft": 7412,
      "Ġrais": 7413,
      "Ġdoi": 7414,
      "ĠJon": 7415,
      "Ġpepper": 7416,
      "Ġcopper": 7417,
      "Ġmodest": 7418,
      "ĠCanadian": 7419,
      "ĠTherefore": 7420,
      "Ġlaughs": 7421,
      "Ġassistance": 7422,
      "Ġspiritual": 7423,
      "Ġturkey": 7424,
      "Ġobservations": 7425,
      "01": 7426,
      "DP": 7427,
      "Note": 7428,
      "ivery": 7429,
      "Ġbabies": 7430,
      "olve": 7431,
      "ĠLar": 7432,
      "ĠLincoln": 7433,
      "html": 7434,
      "ĠEp": 7435,
      "Ġadequ": 7436,
      "Ġpainter": 7437,
      "Ġsimpl": 7438,
      "Ġaffects": 7439,
      "ĠOnly": 7440,
      "Ġsentence": 7441,
      "Ġachieved": 7442,
      "Ġselection": 7443,
      "Ġcereal": 7444,
      "Ġcomponent": 7445,
      "Ġhammer": 7446,
      "Ġpermanent": 7447,
      "Ġfrightened": 7448,
      "CO": 7449,
      "Ġinher": 7450,
      "Ġgained": 7451,
      "Ġjet": 7452,
      "Ġabuse": 7453,
      "ocation": 7454,
      "ints": 7455,
      "Ġsniff": 7456,
      "Ġforests": 7457,
      "Ġpotentially": 7458,
      "Ġcutting": 7459,
      "Ġclaimed": 7460,
      "Ġexamined": 7461,
      "Ġdepending": 7462,
      "Ġneighbour": 7463,
      "Ġmachines": 7464,
      "Ġpige": 7465,
      "Ġinvestigate": 7466,
      "Ġharmless": 7467,
      "Ġstretched": 7468,
      "Ġroute": 7469,
      "Ġbossy": 7470,
      "Ġinner": 7471,
      "ĠTw": 7472,
      "ĠHome": 7473,
      "ĠWil": 7474,
      "Ġslides": 7475,
      "Ġattach": 7476,
      "Ġspeaking": 7477,
      "ĠBefore": 7478,
      "Ġwelcom": 7479,
      "Ġecosystem": 7480,
      "aturally": 7481,
      "ĠProfessor": 7482,
      "liam": 7483,
      "Ġtons": 7484,
      "ĠLab": 7485,
      "ĠBird": 7486,
      "Ġneat": 7487,
      "Ġtrig": 7488,
      "Ġtruly": 7489,
      "Ġbirdie": 7490,
      "Ġswan": 7491,
      "Ġtreatments": 7492,
      "Ġstickers": 7493,
      "Ġtowns": 7494,
      "Ġsurvival": 7495,
      "Ġdrops": 7496,
      "Ġcrystal": 7497,
      "Ġdoubt": 7498,
      "Ġenthusi": 7499,
      "ĠColumbia": 7500,
      "Ġcrazy": 7501,
      "Br": 7502,
      "rich": 7503,
      "upp": 7504,
      "Ġinstruction": 7505,
      "iraff": 7506,
      "ĠBi": 7507,
      "Ġchim": 7508,
      "ĠOld": 7509,
      "Ġanyway": 7510,
      "Ġworldwide": 7511,
      "Ġsecure": 7512,
      "Ġsteam": 7513,
      "ĠEncy": 7514,
      "Ġmeasuring": 7515,
      "Ġmechanism": 7516,
      "ĠGlobal": 7517,
      "Spot": 7518,
      "Ġcrocodile": 7519,
      "zil": 7520,
      "Ġtoler": 7521,
      "Ġcush": 7522,
      "ĠSant": 7523,
      "acher": 7524,
      "Ġbeat": 7525,
      "Ġstack": 7526,
      "Ġprove": 7527,
      "Ġvine": 7528,
      "oster": 7529,
      "Ġfounded": 7530,
      "Ġremaining": 7531,
      "Ġ1992": 7532,
      "Ġhunter": 7533,
      "ognitive": 7534,
      "Ġsuperior": 7535,
      "Ġkidney": 7536,
      "ĠRoyal": 7537,
      "ĠCarolina": 7538,
      "Ġexcellent": 7539,
      "Ġrestaurant": 7540,
      "Ġthirsty": 7541,
      "itely": 7542,
      "Ġdu": 7543,
      "acement": 7544,
      "Ġreven": 7545,
      "olt": 7546,
      "ortion": 7547,
      "ockey": 7548,
      "Ġcarpet": 7549,
      "ĠOh": 7550,
      "Ġcovers": 7551,
      "Ġcareer": 7552,
      "Ġaccomp": 7553,
      "riculum": 7554,
      "Ġsigned": 7555,
      "Ġminim": 7556,
      "Ġsalad": 7557,
      "Ġmeasurements": 7558,
      "Ġdebate": 7559,
      "ĠAdminist": 7560,
      "Ow": 7561,
      "Ġmur": 7562,
      "Ġdug": 7563,
      "Ġreaches": 7564,
      "ĠAp": 7565,
      "ĠAri": 7566,
      "Ġclumsy": 7567,
      "Ġtrash": 7568,
      "pless": 7569,
      "Ġexpans": 7570,
      "Ġregist": 7571,
      "Ġafford": 7572,
      "aska": 7573,
      "cycle": 7574,
      "Ġgranted": 7575,
      "Ġhippo": 7576,
      "Ġearthquake": 7577,
      "69": 7578,
      "Ed": 7579,
      "Ġoption": 7580,
      "Ġlecture": 7581,
      "iches": 7582,
      "Ġgolf": 7583,
      "ĠIr": 7584,
      "ĠMel": 7585,
      "ĠMem": 7586,
      "usal": 7587,
      "ĠEff": 7588,
      "ĠEventually": 7589,
      "ĠRem": 7590,
      "ĠNemo": 7591,
      "Ġdecade": 7592,
      "Ġprem": 7593,
      "ails": 7594,
      "Ġrecyc": 7595,
      "luding": 7596,
      "Ġmode": 7597,
      "Ġlateral": 7598,
      "Ġwheels": 7599,
      "Ġurban": 7600,
      "Ġentirely": 7601,
      "Ġimmediate": 7602,
      "Ġpalm": 7603,
      "Ġhypot": 7604,
      "Ġscholars": 7605,
      "Ġumbre": 7606,
      "oir": 7607,
      "Ġalarm": 7608,
      "abled": 7609,
      "ugged": 7610,
      "Ġvital": 7611,
      "ĠNations": 7612,
      "Ġperce": 7613,
      "Ġextended": 7614,
      "Ġpopcorn": 7615,
      "Ġrestore": 7616,
      "Ġfewer": 7617,
      "Ġzip": 7618,
      "comp": 7619,
      "icycle": 7620,
      "Ġyounger": 7621,
      "ipper": 7622,
      "Ġgasped": 7623,
      "Ġindicates": 7624,
      "Ġburned": 7625,
      "ĠControl": 7626,
      "Ġgolden": 7627,
      "Ġobtained": 7628,
      "Ġemotional": 7629,
      "Ġprisoners": 7630,
      "Ġcolleagues": 7631,
      "Ġcricket": 7632,
      "77": 7633,
      "Cont": 7634,
      "eath": 7635,
      "Â·": 7636,
      "Ġwine": 7637,
      "Ġgiraff": 7638,
      "adel": 7639,
      "etime": 7640,
      "Ġriding": 7641,
      "ĠFort": 7642,
      "ĠNut": 7643,
      "!\".": 7644,
      "Ġcontribute": 7645,
      "ipal": 7646,
      "Ġdelivery": 7647,
      "Ġgenerate": 7648,
      "Ġextensive": 7649,
      "Ġautism": 7650,
      "Ġpossibly": 7651,
      "Ġsatell": 7652,
      "Ġobserve": 7653,
      "Ġphotos": 7654,
      "Ġnegot": 7655,
      "Ad": 7656,
      "IL": 7657,
      "hand": 7658,
      "heimer": 7659,
      "Ġcord": 7660,
      "ĠSol": 7661,
      "sts": 7662,
      "Ġsurve": 7663,
      "Ġrecovery": 7664,
      "encing": 7665,
      "Ġpushing": 7666,
      "Ġcups": 7667,
      "Ġnecessarily": 7668,
      "Ġepide": 7669,
      "IDS": 7670,
      "Ġinjuries": 7671,
      "ĠParty": 7672,
      "Ġadministration": 7673,
      "Even": 7674,
      "Last": 7675,
      "fr": 7676,
      "then": 7677,
      "ĠÃ": 7678,
      "Ġoy": 7679,
      "leg": 7680,
      "Ġsofa": 7681,
      "ĠDel": 7682,
      "ĠFree": 7683,
      "ĠFurther": 7684,
      "Ġcompr": 7685,
      "ĠStreet": 7686,
      "ĠAny": 7687,
      "Ġcrim": 7688,
      "Ġlisted": 7689,
      "Ġbarber": 7690,
      "Ġbald": 7691,
      "Ġphotograph": 7692,
      "Ġsensitive": 7693,
      "ascular": 7694,
      "Ġtransmission": 7695,
      "Ġcomprehensive": 7696,
      "http": 7697,
      "43": 7698,
      "Tr": 7699,
      "Ġwitch": 7700,
      "Ġfest": 7701,
      "ena": 7702,
      "orable": 7703,
      "ĠTime": 7704,
      "Ġyawn": 7705,
      "Ġsport": 7706,
      "Ġagencies": 7707,
      "Ġinfected": 7708,
      "erman": 7709,
      "Ġrealize": 7710,
      "vironments": 7711,
      "Ġseconds": 7712,
      "Ġfrogs": 7713,
      "ikes": 7714,
      "Ġbarrel": 7715,
      "Ġeraser": 7716,
      "Ġintroduction": 7717,
      "Ġbulb": 7718,
      "Ġawareness": 7719,
      "CS": 7720,
      "Mary": 7721,
      "Next": 7722,
      "from": 7723,
      "Ġcaut": 7724,
      "Ġheal": 7725,
      "ading": 7726,
      "ĠLater": 7727,
      "Ġsho": 7728,
      "ategy": 7729,
      "Ġboot": 7730,
      "acts": 7731,
      "ictions": 7732,
      "Ġskull": 7733,
      "Ġindex": 7734,
      "Ġregional": 7735,
      "Ġrefers": 7736,
      "Ġ1994": 7737,
      "ĠExper": 7738,
      "Ġmountains": 7739,
      "Ġprinted": 7740,
      "Ġfluid": 7741,
      "liament": 7742,
      ")||": 7743,
      "Read": 7744,
      "bits": 7745,
      "gov": 7746,
      "heart": 7747,
      "Ġdrawn": 7748,
      "Ġloll": 7749,
      "Ġreverse": 7750,
      "ĠHy": 7751,
      "aine": 7752,
      "oples": 7753,
      "ĠWould": 7754,
      "ĠJul": 7755,
      "ĠRome": 7756,
      "earchers": 7757,
      "Ġstrategy": 7758,
      "Ġchecked": 7759,
      "Ġproudly": 7760,
      "Ġperspective": 7761,
      "Ġ500": 7762,
      "Ġairport": 7763,
      "Ġsolutions": 7764,
      "Ġoperate": 7765,
      "Ġpressed": 7766,
      "Ġdepends": 7767,
      "Ġofficers": 7768,
      "Ġ1960": 7769,
      "Ġreactions": 7770,
      "Ġflashlight": 7771,
      "ĠVictor": 7772,
      "ĠChicago": 7773,
      "cel": 7774,
      "gu": 7775,
      "pack": 7776,
      "power": 7777,
      "Ġwishes": 7778,
      "aters": 7779,
      "Ġalg": 7780,
      "Ġconstit": 7781,
      "ective": 7782,
      "Ġtemple": 7783,
      "Ġhairy": 7784,
      "Ġbringing": 7785,
      "ĠDesign": 7786,
      "Ġphilosophy": 7787,
      "ĠRevolution": 7788,
      "04": 7789,
      "86": 7790,
      "Rec": 7791,
      "inf": 7792,
      "Ġfisher": 7793,
      "ĠTHE": 7794,
      "ĠJerry": 7795,
      "Ġleopard": 7796,
      "bert": 7797,
      "Ġskip": 7798,
      "Ġcriter": 7799,
      "Ġburied": 7800,
      "Ġrooms": 7801,
      "Ġvisible": 7802,
      "Ġstands": 7803,
      "ĠLeg": 7804,
      "Ġmemories": 7805,
      "Ġrepresented": 7806,
      "Ġgifted": 7807,
      "Ġvessels": 7808,
      "ĠKennedy": 7809,
      "Ġcompassionate": 7810,
      "Ġequivalent": 7811,
      "Ġlollip": 7812,
      "73": 7813,
      "Qu": 7814,
      "Sc": 7815,
      "hma": 7816,
      "Ġhive": 7817,
      "Ġmaze": 7818,
      "oogle": 7819,
      "ĠBC": 7820,
      "tery": 7821,
      "ĠCop": 7822,
      "Ġbrings": 7823,
      "Ġcommitted": 7824,
      "Ġhanded": 7825,
      "Ġslaves": 7826,
      "Ġguidelines": 7827,
      "ĠAustralian": 7828,
      "Ġinstrument": 7829,
      "ĠPortug": 7830,
      "Ġdiscrimination": 7831,
      "alysis": 7832,
      "aded": 7833,
      "ĠHospital": 7834,
      "ĠIV": 7835,
      "ĠCult": 7836,
      "Ġhelpless": 7837,
      "Ġimper": 7838,
      "Ġimpat": 7839,
      "Ġswamp": 7840,
      "ĠStar": 7841,
      "Ġends": 7842,
      "Ġdollars": 7843,
      "rimp": 7844,
      "Ġcrawl": 7845,
      "Ġleadership": 7846,
      "iskers": 7847,
      "Ġbattery": 7848,
      "Ġpeeked": 7849,
      "Ġwhispered": 7850,
      ",'": 7851,
      "rid": 7852,
      "sub": 7853,
      "ulin": 7854,
      "ocument": 7855,
      "Ġarrest": 7856,
      "Ġcareless": 7857,
      "Ġclimbing": 7858,
      "ĠIndians": 7859,
      "udej": 7860,
      "ĠGuide": 7861,
      "Ġtuna": 7862,
      "Ġtelephone": 7863,
      "Ġhurry": 7864,
      "Ġdeclared": 7865,
      "Ġhydrogen": 7866,
      "Ġdecrease": 7867,
      "Ġconventional": 7868,
      "Ġcircumst": 7869,
      "Ġbeetle": 7870,
      "Ġholiday": 7871,
      "press": 7872,
      "yth": 7873,
      "Ġaqu": 7874,
      "Ġsan": 7875,
      "Ġwound": 7876,
      "Ġmort": 7877,
      "ario": 7878,
      "Ġinhib": 7879,
      "ĠTor": 7880,
      "rier": 7881,
      "ĠCam": 7882,
      "Ġplayer": 7883,
      "andon": 7884,
      "ĠJac": 7885,
      "Ġchamber": 7886,
      "ĠGold": 7887,
      "ishop": 7888,
      "lection": 7889,
      "Ġ36": 7890,
      "Ġfract": 7891,
      "ups": 7892,
      "Ġsets": 7893,
      "Ġintervention": 7894,
      "Ġsuccessfully": 7895,
      "Ġcalcium": 7896,
      "ĠBoard": 7897,
      "Ġevalu": 7898,
      "Ġannounced": 7899,
      "hythm": 7900,
      "ĠSouthern": 7901,
      "99": 7902,
      "CL": 7903,
      "CR": 7904,
      "rary": 7905,
      "Ġille": 7906,
      "Ġft": 7907,
      "Ġinject": 7908,
      "Ġnaturally": 7909,
      "robe": 7910,
      "indeer": 7911,
      "ĠGulf": 7912,
      "orses": 7913,
      "Ġrelief": 7914,
      "Ġobl": 7915,
      "aws": 7916,
      "Ġbiology": 7917,
      "Ġsparkled": 7918,
      "Ġfacilit": 7919,
      "Ġimmun": 7920,
      "ĠManagement": 7921,
      "Ġrubber": 7922,
      "Ġadministr": 7923,
      "ĠDirector": 7924,
      "ĠBrazil": 7925,
      "ioxide": 7926,
      "ĠDistrict": 7927,
      "Ġgorilla": 7928,
      "called": 7929,
      "Ã¼": 7930,
      "Ġtheater": 7931,
      "Ġboo": 7932,
      "Ġcert": 7933,
      "organ": 7934,
      "Ġgear": 7935,
      "terior": 7936,
      "ĠProp": 7937,
      "Ġtray": 7938,
      "Ġbrighter": 7939,
      "Ġresidents": 7940,
      "ĠOs": 7941,
      "Ġdesalination": 7942,
      "Ġslid": 7943,
      "Ġcenters": 7944,
      "ashion": 7945,
      "Ġconfir": 7946,
      "cribed": 7947,
      "Ġperfectly": 7948,
      "Ġdescribes": 7949,
      "Ġbelongs": 7950,
      "ĠSpecial": 7951,
      "Ġmerely": 7952,
      "Ġoctopus": 7953,
      "Ġumbrella": 7954,
      "06": 7955,
      "Little": 7956,
      "free": 7957,
      "Ġmand": 7958,
      "imens": 7959,
      "acle": 7960,
      "ĠAgency": 7961,
      "ĠMudej": 7962,
      "Ġshocked": 7963,
      "ocking": 7964,
      "Ġenvironments": 7965,
      "Ġunable": 7966,
      "Ġflav": 7967,
      "Ġexplo": 7968,
      "Ġconscious": 7969,
      "ĠScott": 7970,
      "Ġparade": 7971,
      "Ġparallel": 7972,
      "Ġmedications": 7973,
      "Ġrolling": 7974,
      "Ġimagination": 7975,
      "know": 7976,
      "Ġquarter": 7977,
      "Ġaccurate": 7978,
      "Ġtomato": 7979,
      "ĠAtlantic": 7980,
      "case": 7981,
      "zheimer": 7982,
      "Ġtire": 7983,
      "Ġsizes": 7984,
      "Ġwitness": 7985,
      "Ġbes": 7986,
      "Ġdiversity": 7987,
      "ingly": 7988,
      "Ġles": 7989,
      "omic": 7990,
      "Ġhedge": 7991,
      "ĠList": 7992,
      "ĠMad": 7993,
      "Ġvest": 7994,
      "Ġoutdo": 7995,
      "Ġboots": 7996,
      "Ġsomewhat": 7997,
      "yself": 7998,
      "Ġmyth": 7999
    },
    "merges": [
      [
        "Ġ",
        "t"
      ],
      [
        "h",
        "e"
      ],
      [
        "Ġ",
        "a"
      ],
      [
        "Ġ",
        "s"
      ],
      [
        "i",
        "n"
      ],
      [
        "Ġt",
        "he"
      ],
      [
        "Ġ",
        "w"
      ],
      [
        "n",
        "d"
      ],
      [
        "r",
        "e"
      ],
      [
        "e",
        "d"
      ],
      [
        "Ġ",
        "o"
      ],
      [
        "e",
        "r"
      ],
      [
        "Ġ",
        "b"
      ],
      [
        "Ġa",
        "nd"
      ],
      [
        "i",
        "t"
      ],
      [
        "Ġt",
        "o"
      ],
      [
        "Ġ",
        "c"
      ],
      [
        "a",
        "t"
      ],
      [
        "Ġ",
        "f"
      ],
      [
        "o",
        "n"
      ],
      [
        "Ġ",
        "h"
      ],
      [
        "Ġ",
        "p"
      ],
      [
        "o",
        "u"
      ],
      [
        "i",
        "s"
      ],
      [
        "e",
        "n"
      ],
      [
        "a",
        "n"
      ],
      [
        "Ġ",
        "m"
      ],
      [
        "Ġ",
        "d"
      ],
      [
        "a",
        "s"
      ],
      [
        "o",
        "r"
      ],
      [
        "in",
        "g"
      ],
      [
        "e",
        "s"
      ],
      [
        "a",
        "r"
      ],
      [
        "Ġ",
        "l"
      ],
      [
        "a",
        "l"
      ],
      [
        "o",
        "m"
      ],
      [
        "Ġo",
        "f"
      ],
      [
        "Ġ",
        "in"
      ],
      [
        "i",
        "l"
      ],
      [
        "Ġ",
        "T"
      ],
      [
        "Ġ",
        "he"
      ],
      [
        "i",
        "c"
      ],
      [
        "Ġ",
        "n"
      ],
      [
        "Ġt",
        "h"
      ],
      [
        "a",
        "y"
      ],
      [
        "Ġ",
        "g"
      ],
      [
        "Ġw",
        "as"
      ],
      [
        "i",
        "d"
      ],
      [
        "l",
        "e"
      ],
      [
        "i",
        "m"
      ],
      [
        "Ġ",
        "S"
      ],
      [
        "Ġ",
        "e"
      ],
      [
        "i",
        "on"
      ],
      [
        "a",
        "d"
      ],
      [
        "e",
        "t"
      ],
      [
        "u",
        "t"
      ],
      [
        "en",
        "t"
      ],
      [
        "o",
        "t"
      ],
      [
        "ĠT",
        "he"
      ],
      [
        "e",
        "l"
      ],
      [
        "Ġ",
        "it"
      ],
      [
        "o",
        "w"
      ],
      [
        "a",
        "c"
      ],
      [
        "i",
        "r"
      ],
      [
        "Ġ",
        "re"
      ],
      [
        "v",
        "e"
      ],
      [
        "v",
        "er"
      ],
      [
        "Ġ",
        "u"
      ],
      [
        "Ġb",
        "e"
      ],
      [
        "Ġs",
        "a"
      ],
      [
        "Ġ",
        "H"
      ],
      [
        "i",
        "g"
      ],
      [
        "s",
        "t"
      ],
      [
        "l",
        "y"
      ],
      [
        "r",
        "o"
      ],
      [
        "a",
        "m"
      ],
      [
        "Ġs",
        "t"
      ],
      [
        "Ġ",
        "I"
      ],
      [
        "Ġo",
        "n"
      ],
      [
        "Ġ",
        "y"
      ],
      [
        "Ġth",
        "at"
      ],
      [
        "it",
        "h"
      ],
      [
        "o",
        "l"
      ],
      [
        "Ġ",
        "is"
      ],
      [
        "Ġf",
        "or"
      ],
      [
        "Ġh",
        "a"
      ],
      [
        "Ġw",
        "ith"
      ],
      [
        "e",
        "c"
      ],
      [
        "Ġhe",
        "r"
      ],
      [
        "r",
        "i"
      ],
      [
        "s",
        "e"
      ],
      [
        "l",
        "d"
      ],
      [
        "p",
        "p"
      ],
      [
        "ĠH",
        "e"
      ],
      [
        "o",
        "o"
      ],
      [
        "Ġ",
        "A"
      ],
      [
        "c",
        "e"
      ],
      [
        "ĠS",
        "he"
      ],
      [
        "k",
        "e"
      ],
      [
        "u",
        "r"
      ],
      [
        "Ġy",
        "ou"
      ],
      [
        "Ġ",
        "L"
      ],
      [
        "Ġ",
        "\""
      ],
      [
        "u",
        "l"
      ],
      [
        "he",
        "r"
      ],
      [
        "Ġ",
        "B"
      ],
      [
        "Ġa",
        "s"
      ],
      [
        "Ġw",
        "h"
      ],
      [
        "Ġ",
        "M"
      ],
      [
        "ĠThe",
        "y"
      ],
      [
        "Ġ",
        "r"
      ],
      [
        "Ġa",
        "n"
      ],
      [
        "at",
        "ion"
      ],
      [
        "an",
        "t"
      ],
      [
        "il",
        "y"
      ],
      [
        "Ġa",
        "l"
      ],
      [
        "Ġw",
        "e"
      ],
      [
        "Ġsa",
        "id"
      ],
      [
        "Ġp",
        "l"
      ],
      [
        "u",
        "n"
      ],
      [
        "c",
        "h"
      ],
      [
        "Ġh",
        "is"
      ],
      [
        "k",
        "ed"
      ],
      [
        "t",
        "er"
      ],
      [
        "Ġs",
        "o"
      ],
      [
        "Ġs",
        "he"
      ],
      [
        "Ġ",
        "C"
      ],
      [
        "O",
        "n"
      ],
      [
        "Ġa",
        "re"
      ],
      [
        "ver",
        "y"
      ],
      [
        "ou",
        "ld"
      ],
      [
        "'",
        "s"
      ],
      [
        "T",
        "he"
      ],
      [
        "o",
        "re"
      ],
      [
        "Ġthe",
        "y"
      ],
      [
        "Ġs",
        "h"
      ],
      [
        "Ġn",
        "ot"
      ],
      [
        "i",
        "f"
      ],
      [
        "h",
        "t"
      ],
      [
        "Ġd",
        "ay"
      ],
      [
        "Ġu",
        "p"
      ],
      [
        "il",
        "l"
      ],
      [
        "â",
        "Ģ"
      ],
      [
        "a",
        "in"
      ],
      [
        "Ġn",
        "e"
      ],
      [
        "om",
        "e"
      ],
      [
        "Ġh",
        "ad"
      ],
      [
        "u",
        "m"
      ],
      [
        "Ġe",
        "x"
      ],
      [
        "a",
        "g"
      ],
      [
        "Ġa",
        "t"
      ],
      [
        "r",
        "om"
      ],
      [
        "r",
        "ou"
      ],
      [
        "c",
        "t"
      ],
      [
        "Ġ",
        "k"
      ],
      [
        "Ġpl",
        "ay"
      ],
      [
        "Ġl",
        "i"
      ],
      [
        "e",
        "nd"
      ],
      [
        "o",
        "p"
      ],
      [
        "re",
        "d"
      ],
      [
        "a",
        "b"
      ],
      [
        "Ġo",
        "r"
      ],
      [
        "ĠL",
        "ily"
      ],
      [
        "Ġd",
        "o"
      ],
      [
        "Ġs",
        "e"
      ],
      [
        "al",
        "l"
      ],
      [
        "ar",
        "t"
      ],
      [
        "id",
        "e"
      ],
      [
        "u",
        "s"
      ],
      [
        "it",
        "t"
      ],
      [
        "im",
        "e"
      ],
      [
        "Ġm",
        "om"
      ],
      [
        "e",
        "m"
      ],
      [
        "er",
        "s"
      ],
      [
        "Ġb",
        "ut"
      ],
      [
        "Ġc",
        "on"
      ],
      [
        "Ġ",
        "1"
      ],
      [
        "Ġ",
        "W"
      ],
      [
        "Ġs",
        "p"
      ],
      [
        "Ġ",
        "P"
      ],
      [
        "ac",
        "k"
      ],
      [
        "is",
        "t"
      ],
      [
        "m",
        "y"
      ],
      [
        "Ġthe",
        "re"
      ],
      [
        "u",
        "re"
      ],
      [
        "es",
        "t"
      ],
      [
        "Ġha",
        "ve"
      ],
      [
        "ar",
        "d"
      ],
      [
        "Ġt",
        "ime"
      ],
      [
        "r",
        "y"
      ],
      [
        "Ġ",
        "("
      ],
      [
        "Ġc",
        "an"
      ],
      [
        "Ġwe",
        "re"
      ],
      [
        "a",
        "nd"
      ],
      [
        "t",
        "h"
      ],
      [
        "Ġha",
        "pp"
      ],
      [
        "es",
        "s"
      ],
      [
        "Ġw",
        "ant"
      ],
      [
        "ĠI",
        "t"
      ],
      [
        "Ġ",
        "very"
      ],
      [
        "n",
        "t"
      ],
      [
        "Ġp",
        "ro"
      ],
      [
        "a",
        "ke"
      ],
      [
        "v",
        "ed"
      ],
      [
        "o",
        "s"
      ],
      [
        "Ġthe",
        "ir"
      ],
      [
        "Ġf",
        "rom"
      ],
      [
        "u",
        "d"
      ],
      [
        "u",
        "g"
      ],
      [
        "at",
        "e"
      ],
      [
        "ig",
        "ht"
      ],
      [
        "Ġ",
        "v"
      ],
      [
        "q",
        "u"
      ],
      [
        "Ġ",
        "J"
      ],
      [
        "Ġ",
        "D"
      ],
      [
        "Ġ",
        "E"
      ],
      [
        "itt",
        "le"
      ],
      [
        "Ġs",
        "m"
      ],
      [
        "Ġl",
        "o"
      ],
      [
        "ec",
        "t"
      ],
      [
        "Ġb",
        "y"
      ],
      [
        "Ġl",
        "ittle"
      ],
      [
        "Ġl",
        "e"
      ],
      [
        "he",
        "n"
      ],
      [
        "Ġc",
        "om"
      ],
      [
        "Ġ",
        "F"
      ],
      [
        "Ġ",
        "j"
      ],
      [
        ".",
        "\""
      ],
      [
        "Ġc",
        "h"
      ],
      [
        "a",
        "p"
      ],
      [
        "i",
        "es"
      ],
      [
        "in",
        "d"
      ],
      [
        "el",
        "l"
      ],
      [
        "Ġb",
        "ig"
      ],
      [
        "Ġal",
        "l"
      ],
      [
        "Ġo",
        "ut"
      ],
      [
        "Ġhapp",
        "y"
      ],
      [
        "Ġg",
        "o"
      ],
      [
        "ri",
        "end"
      ],
      [
        "i",
        "ve"
      ],
      [
        "Ġthe",
        "m"
      ],
      [
        "oo",
        "d"
      ],
      [
        "Ġf",
        "riend"
      ],
      [
        "it",
        "y"
      ],
      [
        "Ġsa",
        "w"
      ],
      [
        "'",
        "t"
      ],
      [
        "On",
        "e"
      ],
      [
        "Ġw",
        "or"
      ],
      [
        "u",
        "c"
      ],
      [
        "Ġb",
        "o"
      ],
      [
        "Ġ",
        "Ċ"
      ],
      [
        "oo",
        "k"
      ],
      [
        "m",
        "ent"
      ],
      [
        "re",
        "s"
      ],
      [
        "i",
        "al"
      ],
      [
        "t",
        "her"
      ],
      [
        "Ġc",
        "l"
      ],
      [
        "a",
        "re"
      ],
      [
        "or",
        "t"
      ],
      [
        "Ġ",
        "R"
      ],
      [
        "ou",
        "t"
      ],
      [
        "e",
        "p"
      ],
      [
        "Ġa",
        "b"
      ],
      [
        "Ġh",
        "im"
      ],
      [
        "u",
        "st"
      ],
      [
        "on",
        "g"
      ],
      [
        "Ġ",
        "N"
      ],
      [
        "ay",
        "s"
      ],
      [
        "On",
        "ce"
      ],
      [
        "Ġto",
        "o"
      ],
      [
        "he",
        "d"
      ],
      [
        "on",
        "e"
      ],
      [
        "Ġm",
        "an"
      ],
      [
        "Ġc",
        "ould"
      ],
      [
        "as",
        "t"
      ],
      [
        "!",
        "\""
      ],
      [
        "Ġ",
        "G"
      ],
      [
        "ĠT",
        "im"
      ],
      [
        "Ġk",
        "n"
      ],
      [
        "Ġ",
        "2"
      ],
      [
        "al",
        "ly"
      ],
      [
        "o",
        "d"
      ],
      [
        "Ġt",
        "r"
      ],
      [
        "Ġs",
        "c"
      ],
      [
        "p",
        "l"
      ],
      [
        "rou",
        "nd"
      ],
      [
        "ou",
        "r"
      ],
      [
        "e",
        "w"
      ],
      [
        "Ġhe",
        "l"
      ],
      [
        "Ġup",
        "on"
      ],
      [
        "a",
        "k"
      ],
      [
        "ou",
        "s"
      ],
      [
        "ic",
        "e"
      ],
      [
        "ir",
        "l"
      ],
      [
        "i",
        "v"
      ],
      [
        "Ġd",
        "id"
      ],
      [
        "Ġm",
        "e"
      ],
      [
        "ou",
        "nd"
      ],
      [
        "am",
        "e"
      ],
      [
        "Ġth",
        "is"
      ],
      [
        "Ġwant",
        "ed"
      ],
      [
        "Ġd",
        "e"
      ],
      [
        "Ġg",
        "irl"
      ],
      [
        "Ġo",
        "ther"
      ],
      [
        "Ġin",
        "t"
      ],
      [
        "Ġs",
        "u"
      ],
      [
        "Ġa",
        "g"
      ],
      [
        "o",
        "c"
      ],
      [
        "ar",
        "k"
      ],
      [
        "Ġhel",
        "p"
      ],
      [
        "ow",
        "n"
      ],
      [
        "Ġs",
        "ome"
      ],
      [
        "0",
        "0"
      ],
      [
        "at",
        "er"
      ],
      [
        "Ġ",
        "en"
      ],
      [
        "in",
        "e"
      ],
      [
        "Ġ",
        "ro"
      ],
      [
        "Ġwh",
        "o"
      ],
      [
        "Ġw",
        "ould"
      ],
      [
        "h",
        "ing"
      ],
      [
        "e",
        "ar"
      ],
      [
        "an",
        "g"
      ],
      [
        "r",
        "a"
      ],
      [
        "o",
        "g"
      ],
      [
        "f",
        "ul"
      ],
      [
        "Ġm",
        "ore"
      ],
      [
        "i",
        "a"
      ],
      [
        "Ġsm",
        "il"
      ],
      [
        "re",
        "e"
      ],
      [
        "Ġb",
        "ack"
      ],
      [
        "ou",
        "g"
      ],
      [
        "Ġw",
        "ill"
      ],
      [
        "Ġ",
        "im"
      ],
      [
        "ac",
        "e"
      ],
      [
        "ing",
        "s"
      ],
      [
        "Ġw",
        "ent"
      ],
      [
        "Ġu",
        "s"
      ],
      [
        "ac",
        "t"
      ],
      [
        "Ġg",
        "r"
      ],
      [
        "Ġon",
        "e"
      ],
      [
        "ic",
        "h"
      ],
      [
        "p",
        "t"
      ],
      [
        "Ġf",
        "un"
      ],
      [
        "f",
        "f"
      ],
      [
        "ad",
        "e"
      ],
      [
        "i",
        "z"
      ],
      [
        "ac",
        "h"
      ],
      [
        "ic",
        "al"
      ],
      [
        "am",
        "ed"
      ],
      [
        "Ġli",
        "ke"
      ],
      [
        "Ġa",
        "d"
      ],
      [
        "o",
        "st"
      ],
      [
        "re",
        "at"
      ],
      [
        "Ġfriend",
        "s"
      ],
      [
        "ĠB",
        "en"
      ],
      [
        "u",
        "e"
      ],
      [
        "Ġne",
        "w"
      ],
      [
        "Y",
        "ou"
      ],
      [
        "s",
        "ide"
      ],
      [
        "Ġyou",
        "r"
      ],
      [
        "ic",
        "k"
      ],
      [
        "ion",
        "s"
      ],
      [
        "l",
        "ow"
      ],
      [
        "Ġn",
        "o"
      ],
      [
        "Ġw",
        "hen"
      ],
      [
        "?",
        "\""
      ],
      [
        "a",
        "v"
      ],
      [
        "Ġwh",
        "at"
      ],
      [
        "âĢ",
        "Ļ"
      ],
      [
        "om",
        "et"
      ],
      [
        "ag",
        "e"
      ],
      [
        "Ġab",
        "out"
      ],
      [
        "el",
        "t"
      ],
      [
        "Ġth",
        "an"
      ],
      [
        "Ġbe",
        "c"
      ],
      [
        "g",
        "et"
      ],
      [
        "Ġd",
        "is"
      ],
      [
        "Ġn",
        "amed"
      ],
      [
        "Ġse",
        "e"
      ],
      [
        "Ġa",
        "round"
      ],
      [
        "o",
        "nd"
      ],
      [
        "ir",
        "d"
      ],
      [
        "Ġ",
        "One"
      ],
      [
        "ar",
        "y"
      ],
      [
        "ĠI",
        "n"
      ],
      [
        "it",
        "ed"
      ],
      [
        "Ġcon",
        "t"
      ],
      [
        "at",
        "ed"
      ],
      [
        "Ġp",
        "r"
      ],
      [
        "il",
        "d"
      ],
      [
        "Ġm",
        "ake"
      ],
      [
        "it",
        "e"
      ],
      [
        "i",
        "e"
      ],
      [
        "Ġb",
        "r"
      ],
      [
        "an",
        "s"
      ],
      [
        "f",
        "e"
      ],
      [
        "i",
        "p"
      ],
      [
        "Ġ",
        "U"
      ],
      [
        "as",
        "s"
      ],
      [
        "Ġlo",
        "ved"
      ],
      [
        "Ġh",
        "as"
      ],
      [
        "Ġst",
        "art"
      ],
      [
        "y",
        "s"
      ],
      [
        "ab",
        "le"
      ],
      [
        "Ġd",
        "ec"
      ],
      [
        "ĠT",
        "om"
      ],
      [
        "Ġb",
        "l"
      ],
      [
        "k",
        "s"
      ],
      [
        "Ġwh",
        "ich"
      ],
      [
        "ĠT",
        "h"
      ],
      [
        "Ġl",
        "oo"
      ],
      [
        "Ġas",
        "ked"
      ],
      [
        "Ġf",
        "elt"
      ],
      [
        "Ġm",
        "ade"
      ],
      [
        "p",
        "er"
      ],
      [
        "w",
        "ay"
      ],
      [
        "Ġs",
        "omet"
      ],
      [
        ",",
        "\""
      ],
      [
        "Ġf",
        "e"
      ],
      [
        "or",
        "m"
      ],
      [
        "ĠTim",
        "my"
      ],
      [
        "Ġe",
        "v"
      ],
      [
        "Ġsmil",
        "ed"
      ],
      [
        "Ġp",
        "e"
      ],
      [
        "ĠB",
        "ut"
      ],
      [
        "u",
        "se"
      ],
      [
        "Ġf",
        "ound"
      ],
      [
        "Ġ",
        "âĢ"
      ],
      [
        "Ġloo",
        "ked"
      ],
      [
        "Ġa",
        "r"
      ],
      [
        "Ġa",
        "c"
      ],
      [
        "Ġc",
        "ar"
      ],
      [
        "b",
        "er"
      ],
      [
        "is",
        "h"
      ],
      [
        "Ġp",
        "re"
      ],
      [
        "s",
        "o"
      ],
      [
        "a",
        "red"
      ],
      [
        "as",
        "e"
      ],
      [
        "res",
        "s"
      ],
      [
        "Ġb",
        "ird"
      ],
      [
        "Ġag",
        "ain"
      ],
      [
        "Ġp",
        "er"
      ],
      [
        "Ġthe",
        "n"
      ],
      [
        "Ġit",
        "s"
      ],
      [
        "Ġ1",
        "9"
      ],
      [
        "Ġcom",
        "p"
      ],
      [
        "Ġc",
        "ol"
      ],
      [
        "Ġint",
        "o"
      ],
      [
        "Ġ",
        "qu"
      ],
      [
        "il",
        "e"
      ],
      [
        "Ġre",
        "s"
      ],
      [
        "b",
        "le"
      ],
      [
        "Ġg",
        "et"
      ],
      [
        "Ġt",
        "w"
      ],
      [
        "ar",
        "n"
      ],
      [
        "Ġbo",
        "y"
      ],
      [
        "Ġ",
        "O"
      ],
      [
        "u",
        "ch"
      ],
      [
        "Ġim",
        "p"
      ],
      [
        "Ġin",
        "c"
      ],
      [
        "el",
        "y"
      ],
      [
        "Ġu",
        "n"
      ],
      [
        "ul",
        "t"
      ],
      [
        "u",
        "b"
      ],
      [
        "Ġa",
        "way"
      ],
      [
        "Ġsp",
        "ec"
      ],
      [
        "ation",
        "s"
      ],
      [
        "Ġ",
        "You"
      ],
      [
        "Ġg",
        "ood"
      ],
      [
        "Ġo",
        "ver"
      ],
      [
        "Ġs",
        "ays"
      ],
      [
        "Ġto",
        "get"
      ],
      [
        "Ġtoget",
        "her"
      ],
      [
        "an",
        "ce"
      ],
      [
        "Ġl",
        "ook"
      ],
      [
        "Ġan",
        "y"
      ],
      [
        "en",
        "ce"
      ],
      [
        "Ġh",
        "ow"
      ],
      [
        "f",
        "ter"
      ],
      [
        "Ġp",
        "ut"
      ],
      [
        "Ġsomet",
        "hing"
      ],
      [
        "Ġal",
        "so"
      ],
      [
        "he",
        "re"
      ],
      [
        "or",
        "y"
      ],
      [
        "i",
        "re"
      ],
      [
        "ig",
        "n"
      ],
      [
        "a",
        "ve"
      ],
      [
        "Ġex",
        "c"
      ],
      [
        "Ġa",
        "pp"
      ],
      [
        "a",
        "use"
      ],
      [
        "Ġe",
        "very"
      ],
      [
        "o",
        "b"
      ],
      [
        "Ġh",
        "ome"
      ],
      [
        "Ġstart",
        "ed"
      ],
      [
        "L",
        "ily"
      ],
      [
        "g",
        "e"
      ],
      [
        "nd",
        "er"
      ],
      [
        "is",
        "e"
      ],
      [
        "v",
        "el"
      ],
      [
        "re",
        "n"
      ],
      [
        "ent",
        "s"
      ],
      [
        "Ġr",
        "an"
      ],
      [
        "ou",
        "nt"
      ],
      [
        "Ġl",
        "a"
      ],
      [
        "u",
        "ct"
      ],
      [
        "Ġ",
        "if"
      ],
      [
        "ri",
        "ed"
      ],
      [
        "Ã",
        "¢"
      ],
      [
        "Ġp",
        "art"
      ],
      [
        "â",
        "Ĥ"
      ],
      [
        "âĤ",
        "¬"
      ],
      [
        "Ġb",
        "et"
      ],
      [
        "Ġp",
        "ark"
      ],
      [
        "Ġf",
        "ind"
      ],
      [
        "Ġd",
        "own"
      ],
      [
        "a",
        "x"
      ],
      [
        "or",
        "s"
      ],
      [
        "Ġst",
        "r"
      ],
      [
        "h",
        "at"
      ],
      [
        "Ġs",
        "w"
      ],
      [
        "Ġc",
        "o"
      ],
      [
        "en",
        "s"
      ],
      [
        "l",
        "l"
      ],
      [
        "Ġs",
        "ad"
      ],
      [
        "id",
        "ed"
      ],
      [
        "al",
        "s"
      ],
      [
        "op",
        "le"
      ],
      [
        "pp",
        "ed"
      ],
      [
        "m",
        "er"
      ],
      [
        "Ġ",
        "ke"
      ],
      [
        "or",
        "d"
      ],
      [
        "o",
        "se"
      ],
      [
        "Ġy",
        "ear"
      ],
      [
        "Ġw",
        "ater"
      ],
      [
        "Ġth",
        "oug"
      ],
      [
        "Ġa",
        "m"
      ],
      [
        "Ġth",
        "ings"
      ],
      [
        "ou",
        "se"
      ],
      [
        "Ġkn",
        "ow"
      ],
      [
        "Ġne",
        "ed"
      ],
      [
        "Ġm",
        "y"
      ],
      [
        "Ġh",
        "ug"
      ],
      [
        "Ġbe",
        "en"
      ],
      [
        "rou",
        "g"
      ],
      [
        "Ġ",
        "K"
      ],
      [
        "Ġman",
        "y"
      ],
      [
        "Ġc",
        "are"
      ],
      [
        "Ġu",
        "nder"
      ],
      [
        "Ġw",
        "al"
      ],
      [
        "a",
        "il"
      ],
      [
        "Ġle",
        "arn"
      ],
      [
        "ot",
        "her"
      ],
      [
        "Ġof",
        "f"
      ],
      [
        "h",
        "n"
      ],
      [
        "ĠS",
        "t"
      ],
      [
        "k",
        "ing"
      ],
      [
        "ot",
        "h"
      ],
      [
        "ig",
        "h"
      ],
      [
        "Ġf",
        "l"
      ],
      [
        "Ġpe",
        "ople"
      ],
      [
        "ic",
        "t"
      ],
      [
        "Ġg",
        "ot"
      ],
      [
        "ĠA",
        "n"
      ],
      [
        "Ġplay",
        "ing"
      ],
      [
        "Ġc",
        "ame"
      ],
      [
        "Ġm",
        "uch"
      ],
      [
        "Ġs",
        "ur"
      ],
      [
        "âĢ",
        "Ŀ"
      ],
      [
        "ir",
        "st"
      ],
      [
        "Ġsh",
        "ow"
      ],
      [
        ")",
        "."
      ],
      [
        "ol",
        "og"
      ],
      [
        "l",
        "es"
      ],
      [
        "Ġtw",
        "o"
      ],
      [
        "w",
        "ays"
      ],
      [
        "Ġfe",
        "el"
      ],
      [
        "on",
        "s"
      ],
      [
        "n",
        "y"
      ],
      [
        "v",
        "ing"
      ],
      [
        "in",
        "t"
      ],
      [
        "i",
        "an"
      ],
      [
        "le",
        "ct"
      ],
      [
        "Ġt",
        "ake"
      ],
      [
        "ur",
        "n"
      ],
      [
        "Ġj",
        "ust"
      ],
      [
        "Ġt",
        "e"
      ],
      [
        "is",
        "s"
      ],
      [
        "f",
        "t"
      ],
      [
        "Ġin",
        "f"
      ],
      [
        "Ġdo",
        "g"
      ],
      [
        "n",
        "a"
      ],
      [
        "Ġl",
        "ong"
      ],
      [
        "c",
        "ess"
      ],
      [
        "w",
        "n"
      ],
      [
        "Ġbec",
        "ause"
      ],
      [
        "it",
        "ion"
      ],
      [
        "Ġdec",
        "ided"
      ],
      [
        "i",
        "ous"
      ],
      [
        "Ġm",
        "ay"
      ],
      [
        "Ġexc",
        "ited"
      ],
      [
        "uc",
        "k"
      ],
      [
        "Ġs",
        "k"
      ],
      [
        "ĠC",
        "h"
      ],
      [
        "Ġp",
        "o"
      ],
      [
        "o",
        "ve"
      ],
      [
        "ud",
        "d"
      ],
      [
        "Ġo",
        "ld"
      ],
      [
        "Ġal",
        "ways"
      ],
      [
        "Ġd",
        "if"
      ],
      [
        "Ġli",
        "ked"
      ],
      [
        "Ġc",
        "all"
      ],
      [
        "el",
        "f"
      ],
      [
        "Ġu",
        "se"
      ],
      [
        "Ġthoug",
        "ht"
      ],
      [
        "en",
        "ed"
      ],
      [
        "Ġtoo",
        "k"
      ],
      [
        "an",
        "c"
      ],
      [
        "Ġst",
        "ud"
      ],
      [
        "Ġe",
        "ach"
      ],
      [
        "Ġre",
        "c"
      ],
      [
        "i",
        "ed"
      ],
      [
        "t",
        "y"
      ],
      [
        "Ġcom",
        "m"
      ],
      [
        "Ġs",
        "y"
      ],
      [
        "Ġ",
        "V"
      ],
      [
        "ol",
        "d"
      ],
      [
        "at",
        "es"
      ],
      [
        "ĠW",
        "e"
      ],
      [
        "Ġl",
        "ot"
      ],
      [
        "Ġha",
        "nd"
      ],
      [
        "ar",
        "a"
      ],
      [
        "Ġ",
        "-"
      ],
      [
        "Ġex",
        "pl"
      ],
      [
        "re",
        "nt"
      ],
      [
        "e",
        "red"
      ],
      [
        "Ġt",
        "ree"
      ],
      [
        "Ġre",
        "m"
      ],
      [
        "he",
        "s"
      ],
      [
        "Ġspec",
        "ial"
      ],
      [
        "Ġsm",
        "all"
      ],
      [
        "l",
        "ed"
      ],
      [
        "Ġev",
        "en"
      ],
      [
        "Ġdid",
        "n"
      ],
      [
        "Ġsh",
        "ould"
      ],
      [
        "Ġa",
        "ct"
      ],
      [
        "roug",
        "h"
      ],
      [
        "Ġo",
        "p"
[...]
